.	-2.24646
<s>	0
</s>	0
<unk>	0
▁Tom	-3.89042
▁a	-3.91882
▁I	-3.9706
'	-4.02253
s	-4.04552
?	-4.10892
▁to	-4.26345
▁de	-4.42553
▁the	-4.44363
▁que	-4.51254
▁you	-4.64088
t	-4.72134
▁¿	-4.81106
▁la	-4.82198
,	-4.90722
▁is	-4.90911
▁no	-5.04893
▁en	-5.05801
▁el	-5.11167
▁me	-5.11452
▁es	-5.2143
▁un	-5.25689
▁No	-5.31688
▁	-5.32195
▁in	-5.37364
▁Mary	-5.40393
n	-5.41785
o	-5.42447
▁of	-5.45661
▁He	-5.49144
▁was	-5.55918
▁se	-5.65098
▁that	-5.67198
▁una	-5.73811
▁The	-5.74241
▁have	-5.79134
▁lo	-5.81108
▁it	-5.81446
y	-5.83031
▁for	-5.83423
▁por	-5.90604
▁You	-5.95397
▁he	-5.9561
▁Él	-5.97032
▁con	-5.98304
▁su	-6.04473
▁do	-6.04511
▁my	-6.04753
m	-6.05943
▁be	-6.06413
▁está	-6.06481
▁She	-6.11834
▁this	-6.14501
▁on	-6.15288
▁his	-6.16953
▁can	-6.17103
▁want	-6.18054
▁your	-6.18952
▁We	-6.19368
▁with	-6.19398
▁El	-6.21355
▁para	-6.22881
▁are	-6.23556
▁le	-6.23641
▁It	-6.25258
▁los	-6.26425
▁al	-6.26523
▁and	-6.2674
▁did	-6.26925
▁not	-6.27156
▁has	-6.27727
▁y	-6.28665
▁like	-6.28871
▁don	-6.2958
▁mi	-6.30064
▁Ella	-6.3072
▁know	-6.31809
▁más	-6.34108
▁Me	-6.4048
▁him	-6.41253
▁at	-6.42893
▁A	-6.46157
▁La	-6.47294
re	-6.48517
d	-6.50488
▁las	-6.52371
▁What	-6.55153
▁go	-6.55481
ll	-6.57165
ó	-6.57245
▁te	-6.57703
▁qué	-6.59682
▁what	-6.60463
▁her	-6.65319
▁tu	-6.67928
mos	-6.69352
ed	-6.69405
▁time	-6.69462
▁muy	-6.71678
▁Do	-6.72457
▁This	-6.74035
▁very	-6.74227
▁had	-6.7459
ve	-6.75475
▁will	-6.75585
a	-6.76261
e	-6.78921
▁They	-6.79216
ing	-6.79532
▁del	-6.80826
▁él	-6.81838
▁up	-6.82097
▁about	-6.82891
▁M	-6.83422
▁Esto	-6.84336
▁tiene	-6.84407
▁Es	-6.85376
▁here	-6.85968
▁think	-6.86645
!	-6.8729
▁casa	-6.87597
Qué	-6.88783
▁out	-6.92736
▁hacer	-6.94931
▁all	-6.95496
▁estaba	-6.95864
▁from	-6.97556
▁aquí	-6.99107
▁Yo	-7.00622
▁get	-7.01647
é	-7.01781
▁como	-7.02224
▁fue	-7.03231
▁were	-7.04573
▁ha	-7.079
▁we	-7.09539
▁mucho	-7.09658
▁Mi	-7.09964
▁That	-7.1049
▁doesn	-7.10591
▁going	-7.10685
▁one	-7.10698
▁tiempo	-7.11367
▁an	-7.12251
▁algo	-7.12264
▁eso	-7.12527
▁gusta	-7.13446
▁son	-7.13486
▁as	-7.13635
▁by	-7.13758
▁esta	-7.14116
▁There	-7.1618
▁favor	-7.16861
▁good	-7.1815
▁see	-7.18374
▁come	-7.20091
▁ir	-7.21049
▁there	-7.21087
do	-7.21502
▁How	-7.22906
▁could	-7.2341
▁so	-7.24049
▁should	-7.24107
▁tan	-7.24242
▁need	-7.24247
▁been	-7.24248
▁este	-7.24709
▁Don	-7.26392
▁Boston	-7.26809
▁vez	-7.27623
▁nada	-7.28582
▁she	-7.2942
▁bien	-7.30023
▁todo	-7.31206
▁more	-7.3374
▁si	-7.34629
▁help	-7.35604
▁but	-7.36461
▁just	-7.36574
▁than	-7.36648
▁Los	-7.36864
▁would	-7.37233
▁era	-7.37796
▁puedo	-7.38503
▁car	-7.38719
▁us	-7.39574
▁ser	-7.3979
▁Esta	-7.40038
Por	-7.41798
▁got	-7.42595
▁never	-7.42722
es	-7.43253
r	-7.43746
ly	-7.43824
▁when	-7.44165
▁am	-7.45829
▁much	-7.46019
▁now	-7.46352
▁tell	-7.46512
▁ella	-7.47285
▁day	-7.47639
▁esto	-7.47666
▁Se	-7.48108
▁¡	-7.48128
▁Why	-7.48223
▁trabajo	-7.49228
▁something	-7.49316
▁puede	-7.50976
▁Teng	-7.51378
▁last	-7.51381
▁if	-7.51553
▁home	-7.52304
▁cuando	-7.52499
▁work	-7.5287
▁quiero	-7.52975
▁too	-7.53027
▁money	-7.53071
▁Quier	-7.53424
▁dinero	-7.53743
▁Lo	-7.5377
te	-7.54787
▁mañana	-7.55057
▁T	-7.55211
▁dijo	-7.55495
▁hablar	-7.57186
▁Are	-7.5764
se	-7.57997
▁some	-7.58634
▁dos	-7.58932
▁Tomás	-7.59516
▁yo	-7.59594
▁pero	-7.59727
▁back	-7.60516
▁tengo	-7.60929
▁Te	-7.60981
▁Ha	-7.60986
▁how	-7.61343
▁Le	-7.61427
▁take	-7.6232
f	-7.62511
▁Please	-7.63125
▁Let	-7.63502
▁día	-7.63856
▁who	-7.64286
▁estoy	-7.64535
▁people	-7.64939
▁house	-7.65437
▁really	-7.66359
▁book	-7.66658
▁went	-7.66903
▁said	-7.67227
▁libro	-7.67487
▁sus	-7.6792
▁told	-7.68113
▁Ello	-7.68125
▁Can	-7.69014
▁must	-7.6923
▁Este	-7.70057
▁Por	-7.70451
▁Todo	-7.70508
▁poco	-7.71051
me	-7.71804
▁lot	-7.72406
▁haber	-7.72514
▁any	-7.72791
▁todos	-7.73143
▁thought	-7.73213
▁anything	-7.73276
▁S	-7.73733
▁o	-7.73759
▁Si	-7.73862
"	-7.73895
▁había	-7.73949
▁room	-7.74069
▁French	-7.75613
▁ver	-7.75794
▁man	-7.75907
▁quiere	-7.76582
▁eat	-7.77128
▁say	-7.77298
▁made	-7.77818
▁años	-7.78724
▁always	-7.78918
▁school	-7.79028
▁Who	-7.79228
▁right	-7.79776
▁están	-7.79906
▁mejor	-7.80237
▁idea	-7.80291
▁estar	-7.80341
▁hace	-7.80535
▁va	-7.81115
▁long	-7.81533
▁only	-7.81593
▁John	-7.81664
▁make	-7.81871
▁francés	-7.81919
▁padre	-7.82108
▁tarde	-7.82175
▁demasiado	-7.82559
▁María	-7.8269
▁sabe	-7.82915
▁Creo	-7.82946
▁speak	-7.83421
▁When	-7.83985
▁solo	-7.84237
▁two	-7.84243
▁"	-7.84265
▁today	-7.84667
▁Where	-7.85435
▁So	-7.86153
▁father	-7.86222
▁Su	-7.86612
▁many	-7.86682
ta	-7.87108
▁new	-7.87456
▁old	-7.87963
▁love	-7.88348
▁hizo	-7.8906
▁hay	-7.90174
▁three	-7.90301
▁night	-7.90723
▁antes	-7.91532
▁wanted	-7.91976
▁still	-7.91981
▁Eso	-7.92062
▁well	-7.92303
▁off	-7.92541
▁ahora	-7.92547
▁tres	-7.93262
▁noche	-7.94009
-	-7.94265
▁talk	-7.94922
▁N	-7.95041
▁our	-7.95042
▁asked	-7.95364
▁E	-7.95441
▁hora	-7.95601
▁quería	-7.95709
▁every	-7.96369
▁before	-7.97351
▁Did	-7.97511
▁way	-7.97656
▁sé	-7.97665
▁tenía	-7.9768
▁give	-7.98027
▁left	-7.98094
▁over	-7.98213
A	-7.98374
▁dog	-7.98688
▁tomorrow	-7.99148
▁siempre	-7.99455
▁nunca	-7.99605
▁won	-7.99755
▁sobre	-8.00062
▁or	-8.00204
D	-8.00787
▁job	-8.02238
▁little	-8.0254
▁mí	-8.02685
▁verdad	-8.0303
▁saw	-8.03175
▁perro	-8.03179
▁where	-8.03205
▁hombre	-8.03339
▁again	-8.03629
▁live	-8.04748
▁ti	-8.04947
▁C	-8.05011
▁estado	-8.0513
▁comer	-8.05333
▁into	-8.05387
Cóm	-8.06036
▁they	-8.06103
▁vida	-8.06389
▁down	-8.06545
▁Está	-8.0702
▁years	-8.07102
▁better	-8.07531
▁English	-8.07856
▁sin	-8.08795
▁nuevo	-8.09822
▁ese	-8.10043
▁does	-8.10063
ónde	-8.1036
▁buy	-8.10771
▁inglés	-8.1088
▁mis	-8.10941
Quién	-8.11049
▁came	-8.11542
▁Un	-8.11957
▁nos	-8.12109
▁yesterday	-8.12252
▁usted	-8.12893
▁Las	-8.13102
▁Have	-8.13147
▁días	-8.13162
▁find	-8.13706
▁happy	-8.1382
▁play	-8.1413
▁look	-8.14621
▁coche	-8.14747
Te	-8.15218
▁leave	-8.15291
ok	-8.15719
No	-8.16106
▁En	-8.16172
▁decir	-8.16321
▁gente	-8.1649
▁hecho	-8.16575
▁mismo	-8.16577
▁mother	-8.1667
▁hoy	-8.1668
▁understand	-8.17377
▁Tiene	-8.17382
▁esa	-8.17515
▁nothing	-8.1776
▁problema	-8.17965
▁uno	-8.18143
▁other	-8.18258
▁read	-8.18406
▁first	-8.18493
▁believe	-8.1908
▁estás	-8.1919
▁them	-8.19655
▁debería	-8.19962
▁d	-8.19991
mente	-8.20118
▁next	-8.2035
▁put	-8.217
▁hard	-8.2184
▁gustaría	-8.2187
▁after	-8.22242
▁madre	-8.22469
▁semana	-8.22622
▁alguna	-8.22625
Cuál	-8.23009
▁parece	-8.23818
▁plan	-8.23903
▁ya	-8.24171
▁Sé	-8.24515
▁stay	-8.2454
▁morning	-8.25543
▁bought	-8.25742
is	-8.26019
▁tú	-8.26138
▁Ya	-8.26421
▁friends	-8.26582
▁door	-8.26669
▁problem	-8.26811
▁otra	-8.27213
▁name	-8.27422
unca	-8.27536
▁His	-8.27629
▁habitación	-8.27941
▁puerta	-8.28053
▁used	-8.28352
▁life	-8.28751
▁please	-8.29011
▁everything	-8.29162
▁feel	-8.29163
▁pasado	-8.29191
▁buen	-8.29601
▁ever	-8.30153
▁escuela	-8.30191
▁wants	-8.30245
▁así	-8.30265
▁doing	-8.3064
le	-8.30693
▁away	-8.30875
▁quieres	-8.30876
▁children	-8.31022
▁Debería	-8.31725
▁friend	-8.31753
lo	-8.31939
▁dónde	-8.3199
▁doctor	-8.32369
▁Pens	-8.32511
Cuánto	-8.32715
▁nadie	-8.32916
▁gave	-8.33141
▁late	-8.33495
▁quién	-8.33564
ble	-8.33592
on	-8.34244
▁soon	-8.34481
▁cosas	-8.34622
▁mundo	-8.34632
▁Necesit	-8.34633
▁1	-8.35217
▁ask	-8.35666
▁sure	-8.35792
▁happened	-8.3602
▁amigos	-8.36182
▁lost	-8.37481
res	-8.37801
▁their	-8.38052
▁bus	-8.38326
▁voy	-8.38375
▁ayuda	-8.38609
▁feliz	-8.38826
▁niños	-8.39131
▁fuera	-8.39415
▁remember	-8.39716
▁saber	-8.39812
▁difícil	-8.39897
▁veces	-8.39961
Cuán	-8.40132
▁why	-8.40188
▁año	-8.40289
▁hacerlo	-8.40293
▁call	-8.40536
▁already	-8.40646
▁cómo	-8.40793
▁auto	-8.41783
▁let	-8.42015
▁year	-8.42205
▁allí	-8.42572
▁boy	-8.42891
▁enough	-8.42978
▁niño	-8.43122
▁teacher	-8.43122
▁week	-8.43124
▁alone	-8.43214
▁otro	-8.43361
▁soy	-8.43939
▁heard	-8.44307
▁tienes	-8.44341
▁married	-8.44628
▁puedes	-8.44734
▁menos	-8.45148
▁sabía	-8.45693
▁wrong	-8.4583
▁best	-8.46001
▁agua	-8.46553
▁busy	-8.46634
▁bad	-8.46743
▁amigo	-8.46781
▁buena	-8.46918
▁comprar	-8.47035
que	-8.4708
▁dio	-8.47237
▁sea	-8.47274
▁bed	-8.47286
cause	-8.47286
▁beautiful	-8.47292
▁mal	-8.47393
▁seguro	-8.47528
▁hear	-8.48029
▁water	-8.48285
▁Tu	-8.48316
▁often	-8.48565
▁found	-8.4914
▁ayer	-8.49529
▁visto	-8.49777
▁Voy	-8.49786
▁looking	-8.49965
▁comida	-8.50057
▁pronto	-8.50788
▁cold	-8.50799
▁ciudad	-8.5098
▁same	-8.51044
Tiene	-8.51316
ndo	-8.5135
▁thing	-8.51357
▁party	-8.51676
▁conmigo	-8.5181
▁podría	-8.51896
▁Sol	-8.51904
▁done	-8.51956
▁may	-8.52137
▁después	-8.52849
▁without	-8.52851
0	-8.53197
▁desde	-8.5363
▁Would	-8.53899
▁nombre	-8.53986
▁brother	-8.53989
▁train	-8.5413
▁persona	-8.54318
▁nosotros	-8.54432
▁tus	-8.54687
▁looks	-8.55417
▁person	-8.55803
Pued	-8.5594
▁podía	-8.56272
▁seen	-8.56447
▁knew	-8.56541
▁fiesta	-8.56688
▁hermano	-8.5697
▁big	-8.57078
▁Puede	-8.57176
▁food	-8.57238
▁things	-8.5729
▁tren	-8.57294
▁vino	-8.57375
▁café	-8.57623
▁Your	-8.57632
▁use	-8.57739
▁personas	-8.57799
▁show	-8.58205
▁ahí	-8.5833
▁gran	-8.5852
▁turn	-8.58564
▁tener	-8.58899
▁tired	-8.59004
▁May	-8.59028
▁Nadie	-8.59551
▁alguien	-8.59688
▁hope	-8.59885
▁wish	-8.60324
▁dice	-8.60452
▁debe	-8.60797
▁coffee	-8.60943
▁stop	-8.6146
▁contigo	-8.61508
▁suficiente	-8.61508
▁casi	-8.61509
▁Australia	-8.61604
▁haciendo	-8.61795
▁true	-8.61898
▁habla	-8.62012
▁letter	-8.62054
▁carta	-8.62176
▁De	-8.62351
▁lugar	-8.6236
▁answer	-8.62481
▁hotel	-8.62869
▁Cuan	-8.62907
urante	-8.63414
▁around	-8.63534
▁Japan	-8.63795
▁keep	-8.63799
Me	-8.63824
▁being	-8.64107
▁knows	-8.64451
▁profesor	-8.64473
▁drink	-8.64654
▁Japón	-8.64669
▁girl	-8.64694
▁learn	-8.65019
▁hospital	-8.65186
▁yet	-8.65559
▁Ahora	-8.6557
▁clase	-8.65584
tuvo	-8.65717
▁cama	-8.65844
Es	-8.66082
▁acerca	-8.66435
▁while	-8.66436
Quiere	-8.66617
▁salir	-8.66738
▁All	-8.66831
▁Debe	-8.67026
ún	-8.6709
enemos	-8.67546
▁likes	-8.6764
▁open	-8.68398
▁toda	-8.68479
▁Estaba	-8.68571
▁tanto	-8.68659
▁grande	-8.68944
▁W	-8.69121
▁kind	-8.69243
▁sleep	-8.69446
▁ni	-8.70082
▁momento	-8.7009
▁books	-8.70129
▁cuenta	-8.70169
▁died	-8.70211
▁libros	-8.70573
á	-8.70619
▁ten	-8.708
▁mind	-8.71033
▁place	-8.71164
▁leer	-8.71178
▁vas	-8.7124
▁Esper	-8.71266
▁once	-8.71405
▁own	-8.71541
▁tomar	-8.71993
▁pay	-8.72135
▁try	-8.72144
l	-8.72606
▁todas	-8.72644
ther	-8.72793
▁wait	-8.72951
Estás	-8.73101
most	-8.73403
▁study	-8.73404
▁watch	-8.73536
▁days	-8.73537
▁care	-8.73564
▁truth	-8.73836
í	-8.7391
▁Fue	-8.74018
▁sister	-8.74025
▁Hoy	-8.74498
▁even	-8.74669
▁hermana	-8.74677
▁diez	-8.74802
▁Parece	-8.74819
▁these	-8.74849
as	-8.74898
▁cerca	-8.75087
▁another	-8.75449
▁talking	-8.75699
▁bueno	-8.75705
▁happen	-8.75763
odavía	-8.7577
▁rápido	-8.75774
▁parents	-8.75806
▁creo	-8.75817
▁seems	-8.76058
▁ellos	-8.76109
▁Monday	-8.76429
▁teléfono	-8.76429
▁world	-8.7643
▁young	-8.7649
▁Tú	-8.76583
▁Esa	-8.76651
▁hijo	-8.76672
en	-8.76793
▁looked	-8.76988
▁lunes	-8.77088
▁todavía	-8.77092
▁lunch	-8.77416
▁family	-8.77419
▁TV	-8.77421
▁policía	-8.77634
▁walk	-8.77769
▁ago	-8.77985
▁pasó	-8.78108
▁getting	-8.78123
▁historia	-8.78353
ía	-8.78409
Puedes	-8.78539
▁problemas	-8.78601
▁familia	-8.7869
▁tried	-8.78755
cada	-8.78846
▁padres	-8.78928
▁afraid	-8.79091
▁early	-8.79436
▁realmente	-8.79443
▁hate	-8.79572
▁sido	-8.79746
▁eres	-8.79782
▁mujer	-8.80388
emos	-8.8041
▁pudo	-8.80452
▁few	-8.80801
De	-8.81042
▁rain	-8.81656
▁acuerdo	-8.8183
▁difficult	-8.81873
▁anyone	-8.81923
▁together	-8.82183
▁cat	-8.82277
▁mine	-8.82285
▁vivir	-8.82394
▁joven	-8.8248
Ha	-8.82531
▁cosa	-8.82537
▁great	-8.82875
▁trabajar	-8.83092
▁gustan	-8.83178
▁venir	-8.83232
▁horas	-8.83509
▁usual	-8.83549
▁Come	-8.83819
▁muchas	-8.83828
▁mayor	-8.83858
▁D	-8.839
▁child	-8.84281
▁puso	-8.84295
▁else	-8.84366
er	-8.84389
▁vive	-8.84696
▁each	-8.84997
▁wife	-8.85004
▁angry	-8.85714
▁entre	-8.85913
▁dejó	-8.86111
▁vi	-8.86716
▁country	-8.868
▁coming	-8.86819
▁jugar	-8.87504
iempre	-8.87523
▁favorite	-8.87536
gún	-8.87618
amos	-8.8802
▁hurt	-8.88024
▁siento	-8.8827
▁himself	-8.88639
▁yourself	-8.88639
▁accidente	-8.88861
ré	-8.88925
▁Does	-8.89179
▁question	-8.89393
▁mano	-8.89757
▁hours	-8.8976
▁nuestro	-8.89903
▁ocupado	-8.89904
▁mesa	-8.90234
▁nuestra	-8.90281
▁les	-8.90308
▁encontrar	-8.90606
▁parte	-8.90734
▁meeting	-8.90746
▁dejar	-8.90924
▁met	-8.90984
▁murió	-8.91271
▁matter	-8.91441
▁gato	-8.91446
▁dinner	-8.91652
ar	-8.91663
▁donde	-8.91738
▁P	-8.91836
▁phone	-8.91894
▁pasar	-8.91899
▁cinco	-8.92035
▁pregunta	-8.92039
▁temprano	-8.92043
▁table	-8.92056
▁ayudar	-8.92174
▁nadar	-8.92378
▁televisión	-8.9242
▁menudo	-8.92432
▁wouldn	-8.92583
▁might	-8.92806
▁aprender	-8.93043
▁visit	-8.93093
▁piano	-8.93194
▁bastante	-8.93194
▁llegar	-8.93748
▁accident	-8.93858
ron	-8.94133
▁meet	-8.943
▁última	-8.94339
▁easy	-8.94366
▁month	-8.946
▁fácil	-8.94667
▁playing	-8.9501
▁hand	-8.95034
ba	-8.95071
▁estaban	-8.95251
▁volver	-8.95253
▁haven	-8.9526
▁police	-8.95947
▁dormir	-8.9595
▁también	-8.95951
▁swim	-8.95951
ever	-8.95969
▁necesita	-8.96219
▁write	-8.96303
▁Japanese	-8.96353
▁camino	-8.9636
▁five	-8.9639
▁estudiar	-8.96417
▁viene	-8.96975
▁reading	-8.96997
▁Tell	-8.973
▁most	-8.97415
ando	-8.97415
▁pidió	-8.97966
Has	-8.97973
▁Her	-8.98131
▁under	-8.98419
▁says	-8.98446
▁waiting	-8.98519
ould	-8.98666
▁lives	-8.98695
▁trouble	-8.99063
▁eating	-8.99163
▁far	-8.99177
▁trying	-8.99343
▁Ou	-8.99627
ste	-8.99918
▁minutos	-8.99945
▁Al	-9.00049
▁finished	-9.0013
▁called	-9.00365
▁decided	-9.00498
▁dar	-9.0071
▁cansado	-9.0083
▁dicho	-9.00859
▁such	-9.00925
▁started	-9.00979
la	-9.01172
▁office	-9.01223
▁minutes	-9.01243
▁estación	-9.01319
▁fire	-9.01562
▁wonder	-9.01581
▁nice	-9.01584
▁dije	-9.0167
▁razón	-9.01701
▁Be	-9.01769
▁tienen	-9.01777
▁fuerte	-9.02045
os	-9.0236
▁drive	-9.02848
▁error	-9.0292
▁miedo	-9.02987
▁Ayer	-9.02998
▁Una	-9.03064
▁sola	-9.03084
▁story	-9.03407
▁important	-9.03675
▁myself	-9.03838
▁start	-9.03904
Está	-9.03923
▁ate	-9.04136
verdad	-9.04212
▁Nos	-9.04244
▁window	-9.04267
▁preguntó	-9.04275
▁tonight	-9.04313
▁ready	-9.04531
▁país	-9.04644
▁colegio	-9.04706
▁felt	-9.04706
▁tipo	-9.04729
▁alto	-9.04857
▁ran	-9.05112
▁small	-9.05128
▁woman	-9.05142
▁Will	-9.05167
▁lado	-9.0532
▁station	-9.05582
▁importante	-9.05709
▁park	-9.0575
lguien	-9.05796
Sabes	-9.06045
▁arrived	-9.06091
▁frío	-9.06464
▁radio	-9.06467
▁ventana	-9.06499
▁haya	-9.06828
▁shoes	-9.07077
▁students	-9.07303
▁someone	-9.0736
▁sick	-9.07363
0.	-9.07656
▁zapatos	-9.07879
▁change	-9.08162
▁fin	-9.08372
▁sí	-9.08717
▁hot	-9.08737
▁vio	-9.09062
▁hablando	-9.09671
▁importa	-9.09685
▁working	-9.09702
▁película	-9.09712
▁word	-9.09769
▁since	-9.09865
▁música	-9.10076
▁oficina	-9.10076
▁pretty	-9.10076
▁hijos	-9.10195
no	-9.10533
having	-9.10536
▁anymore	-9.10537
▁city	-9.10538
▁sorry	-9.10544
▁fun	-9.10642
c	-9.10658
▁goes	-9.1086
until	-9.11206
▁fast	-9.11427
▁cabeza	-9.11932
▁han	-9.1194
▁punto	-9.12017
▁gone	-9.12086
▁music	-9.12185
▁both	-9.12335
▁Nobody	-9.12402
▁hubiera	-9.12402
▁Everyone	-9.12402
▁homework	-9.12402
▁town	-9.12411
▁media	-9.12477
▁red	-9.12627
▁estudiantes	-9.13083
▁esperar	-9.13268
▁broke	-9.13379
nos	-9.13428
▁ido	-9.13466
▁mistake	-9.13544
▁mientra	-9.13735
▁rich	-9.13836
▁picture	-9.14
▁da	-9.14034
▁reloj	-9.14236
▁bicicleta	-9.14302
▁compró	-9.14302
▁spend	-9.1448
▁único	-9.14783
▁Christmas	-9.14783
▁large	-9.14806
▁reunión	-9.14812
▁lleva	-9.14916
▁re	-9.15013
▁tennis	-9.15266
▁movie	-9.1527
al	-9.15284
▁those	-9.15754
▁needs	-9.15761
▁juntos	-9.15819
▁eyes	-9.15929
▁game	-9.15963
▁esperando	-9.16251
▁ojos	-9.16712
▁near	-9.16724
▁baby	-9.16729
▁primera	-9.16818
▁mucha	-9.17109
▁estamos	-9.17181
▁tenemos	-9.17255
▁dream	-9.17344
▁contra	-9.17445
▁edad	-9.17511
▁seis	-9.17614
▁Just	-9.17717
▁afternoon	-9.17717
▁misma	-9.17726
00	-9.17945
▁high	-9.18199
▁tenis	-9.18219
▁sólo	-9.18222
▁quite	-9.18349
▁nueva	-9.18439
an	-9.18489
▁hice	-9.18715
▁esposa	-9.18721
▁Giv	-9.18818
▁Some	-9.18882
▁stupid	-9.19214
▁podemos	-9.19217
▁language	-9.19501
▁anoche	-9.19647
▁six	-9.19735
▁creer	-9.19783
▁run	-9.19998
▁song	-9.20093
▁breakfast	-9.2023
▁Take	-9.20253
▁class	-9.20518
▁viejo	-9.20526
▁sueño	-9.20537
th	-9.20713
▁Era	-9.20891
▁llegó	-9.21268
▁hair	-9.21306
▁present	-9.21507
▁China	-9.21768
▁río	-9.21768
▁enjoy	-9.21769
▁buscando	-9.21771
ada	-9.22048
▁caja	-9.22064
▁Estado	-9.22096
▁ganas	-9.22236
▁canción	-9.22412
▁ra	-9.2261
▁Vi	-9.22789
▁Fui	-9.22807
▁advice	-9.22807
▁verano	-9.22807
▁against	-9.22858
▁cake	-9.23143
▁estuvo	-9.2325
▁interesting	-9.23346
▁fueron	-9.23446
▁queda	-9.2345
hich	-9.23549
▁chico	-9.23702
▁caught	-9.23857
▁Get	-9.23866
▁aún	-9.24199
▁pueda	-9.24237
▁Pued	-9.24303
▁Unidos	-9.24467
▁verte	-9.24623
▁palabra	-9.24782
▁Son	-9.24862
▁deberías	-9.2506
▁bajo	-9.25144
▁finish	-9.25331
▁lived	-9.25418
▁comes	-9.25464
▁fell	-9.25477
▁face	-9.25674
▁perder	-9.25936
▁conducir	-9.25998
▁Pu	-9.26131
▁number	-9.26377
▁número	-9.26386
not	-9.26474
▁escribir	-9.2648
▁river	-9.26531
▁began	-9.26532
▁forget	-9.26835
ado	-9.26851
▁through	-9.27074
▁along	-9.27145
▁pasa	-9.27198
ólo	-9.27423
▁kill	-9.27458
▁full	-9.27463
▁cualquier	-9.27503
▁longer	-9.27683
▁times	-9.27783
▁studying	-9.27814
be	-9.27889
▁oído	-9.28052
▁será	-9.28063
▁llave	-9.28086
▁aren	-9.28134
▁avión	-9.2817
▁bebé	-9.2817
▁manera	-9.2818
▁tienda	-9.28604
▁respuesta	-9.28636
da	-9.28753
▁calle	-9.28834
▁plane	-9.29008
▁ve	-9.29072
▁taxi	-9.29149
▁cuarto	-9.2929
▁fumar	-9.29441
▁pensar	-9.29558
▁free	-9.29689
▁chica	-9.29777
▁weather	-9.29837
▁necesito	-9.29846
▁interesante	-9.30321
▁pelo	-9.30383
▁dólares	-9.30403
▁milk	-9.30404
▁leche	-9.30414
▁ning	-9.30524
▁autobús	-9.30964
▁perdido	-9.30964
▁quien	-9.30965
▁Aquí	-9.30994
▁cree	-9.31095
▁fish	-9.31422
▁chance	-9.31476
Quisiera	-9.31532
▁summer	-9.31537
g	-9.31639
▁later	-9.3177
▁dolor	-9.31952
▁secret	-9.3201
▁médico	-9.32037
▁box	-9.32039
▁lejos	-9.32114
ra	-9.32264
▁di	-9.32473
▁kept	-9.32678
▁hour	-9.32679
▁mean	-9.32957
▁snow	-9.33013
▁short	-9.33171
▁solía	-9.33273
▁Go	-9.33292
▁older	-9.33319
▁America	-9.33351
▁age	-9.33645
▁oír	-9.33736
▁terminar	-9.33803
▁cámara	-9.33837
▁cierto	-9.33882
▁watching	-9.34042
▁sol	-9.34819
▁usar	-9.35009
▁Gracias	-9.35038
▁bit	-9.351
▁Deja	-9.35467
▁dark	-9.35591
▁ropa	-9.35602
▁salió	-9.35605
▁camera	-9.3563
▁capaz	-9.35668
sotros	-9.35702
Le	-9.35757
▁thinking	-9.35765
▁Para	-9.359
▁makes	-9.35976
▁mío	-9.36103
▁quedó	-9.36224
▁death	-9.36236
▁tree	-9.36251
▁haga	-9.36307
▁killed	-9.36332
▁esté	-9.36594
▁parque	-9.36816
▁student	-9.36867
▁encanta	-9.36985
▁iba	-9.37002
▁pie	-9.37236
▁enfermo	-9.37399
▁pueden	-9.37837
aba	-9.37994
▁guerra	-9.38005
▁algunos	-9.38214
▁end	-9.38466
▁light	-9.38528
▁living	-9.38614
▁spoke	-9.38614
▁Keep	-9.38616
▁became	-9.38621
▁libre	-9.38671
▁hija	-9.38689
▁sat	-9.38724
▁die	-9.38784
▁loves	-9.3911
aron	-9.39164
▁daughter	-9.39308
▁surprised	-9.3931
▁regalo	-9.39345
▁seem	-9.39484
▁part	-9.39519
▁bicycle	-9.39845
▁hands	-9.40083
▁cut	-9.40151
▁forgot	-9.40466
▁hungry	-9.40467
▁everyone	-9.40471
▁York	-9.40472
▁store	-9.40472
▁Many	-9.40498
▁computer	-9.40583
▁Tokyo	-9.41091
▁born	-9.41092
▁muerte	-9.41093
▁Everybody	-9.41093
▁llevar	-9.41146
▁entender	-9.41163
▁street	-9.41203
▁dollars	-9.41274
▁To	-9.4143
▁forma	-9.4162
▁stopped	-9.41727
▁juego	-9.41852
▁listo	-9.41867
▁preguntas	-9.4198
▁clean	-9.42098
▁questions	-9.42123
▁par	-9.42141
ro	-9.42154
▁manos	-9.42223
▁cara	-9.42248
▁Navidad	-9.42353
▁company	-9.42353
▁Stop	-9.42353
alá	-9.42363
▁luz	-9.42369
▁ningun	-9.42528
▁close	-9.42601
▁vacaciones	-9.4299
▁smoking	-9.43004
▁wine	-9.43118
▁trust	-9.43508
▁cost	-9.43513
▁listen	-9.43565
▁realidad	-9.43635
▁Había	-9.43652
▁Oj	-9.4367
▁consejo	-9.43813
▁pequeño	-9.43829
▁moment	-9.43911
▁miss	-9.43958
▁real	-9.43966
▁duro	-9.44043
▁terrible	-9.44247
▁spent	-9.44276
▁posible	-9.44276
▁conozco	-9.44278
▁calor	-9.44284
▁vaya	-9.44557
▁careful	-9.44872
▁war	-9.44891
▁hambre	-9.44926
▁mak	-9.45154
▁glad	-9.45517
▁As	-9.45541
▁secreto	-9.45617
▁beber	-9.45701
ás	-9.45753
taking	-9.45771
▁ustedes	-9.45811
▁tocar	-9.46207
▁birthday	-9.46237
▁drunk	-9.46238
▁rest	-9.46255
▁pregunto	-9.46256
▁estos	-9.46266
▁sit	-9.46392
▁vuelta	-9.46454
▁niña	-9.46468
▁dead	-9.46541
▁news	-9.46764
▁culpa	-9.46837
▁Tokio	-9.46899
▁banco	-9.469
▁parecía	-9.46905
▁white	-9.46908
▁Usted	-9.47092
▁b	-9.47418
▁perdió	-9.47566
▁pude	-9.47567
▁hit	-9.47593
▁largo	-9.47784
▁cena	-9.47916
▁10	-9.47927
▁viaje	-9.48484
▁Hace	-9.48741
▁tea	-9.4883
▁flores	-9.48934
▁malo	-9.49033
▁lie	-9.49033
▁Vamos	-9.49044
▁stand	-9.49064
▁acá	-9.4907
clock	-9.49097
▁become	-9.49169
▁rico	-9.49194
▁quit	-9.4937
ce	-9.49503
▁saying	-9.49538
▁cocina	-9.49545
▁behind	-9.49593
▁cumpleaños	-9.49595
▁equipo	-9.49608
▁siquiera	-9.49613
▁Look	-9.49799
▁Nuestro	-9.50278
▁cerveza	-9.50278
▁which	-9.5028
▁clothes	-9.50283
▁terminado	-9.50303
▁fui	-9.50831
▁ruido	-9.50911
▁touch	-9.50922
▁suerte	-9.50968
▁vos	-9.5097
▁veo	-9.51553
▁beer	-9.51622
▁vamos	-9.51643
▁cuidado	-9.51666
▁tío	-9.51683
▁novia	-9.51721
▁té	-9.51814
ate	-9.51861
▁entrar	-9.5202
Tom	-9.52094
▁oportunidad	-9.52295
▁flowers	-9.52298
▁hagas	-9.523
▁pagar	-9.52327
▁japonés	-9.52363
▁Canadian	-9.52712
▁tal	-9.52858
▁hombres	-9.53016
ween	-9.53066
▁One	-9.53157
▁foto	-9.53457
▁estudiante	-9.53464
▁advise	-9.53584
▁compañía	-9.53775
▁próximo	-9.53775
▁wrote	-9.53784
▁crees	-9.53832
▁head	-9.53845
▁eaten	-9.53879
▁e	-9.53966
▁extraño	-9.54154
▁helped	-9.54157
▁prefer	-9.5424
▁árbol	-9.54428
▁bank	-9.5449
▁expensive	-9.54491
▁possible	-9.54499
▁volvió	-9.54534
▁whe	-9.54599
▁changed	-9.54728
▁falta	-9.54791
i	-9.54812
▁lengua	-9.54902
▁stayed	-9.54943
▁dur	-9.55045
▁trip	-9.55103
▁perros	-9.5517
▁B	-9.55186
▁girlfriend	-9.55209
▁pensando	-9.5522
▁wearing	-9.55302
▁trabaja	-9.55438
▁team	-9.55464
▁building	-9.55616
ieron	-9.55624
▁sing	-9.55652
▁cuánto	-9.55934
▁nieve	-9.55939
▁cantar	-9.56192
▁sabes	-9.56234
▁others	-9.56242
▁asunto	-9.56365
▁tarea	-9.5637
▁Sunday	-9.56375
▁key	-9.564
▁dress	-9.56477
▁final	-9.56531
▁business	-9.56661
▁vestido	-9.56663
▁haci	-9.56901
▁allá	-9.56903
▁reason	-9.57109
▁primero	-9.57123
▁point	-9.57412
▁uncle	-9.57442
▁palabras	-9.57587
▁travel	-9.57676
▁aconsej	-9.57719
▁works	-9.57741
▁blame	-9.58018
▁golf	-9.58139
▁bring	-9.5814
▁outside	-9.58154
▁pan	-9.58261
▁color	-9.583
▁quieras	-9.58511
▁order	-9.58512
▁bet	-9.59153
▁conoce	-9.59181
▁hiciste	-9.59608
▁catch	-9.59629
▁única	-9.59637
▁cuatro	-9.59638
▁noise	-9.59645
▁cuándo	-9.5965
▁tall	-9.59778
▁speaks	-9.59881
▁otros	-9.59891
▁canadiense	-9.60159
▁extranjero	-9.60162
▁pain	-9.60176
▁van	-9.60352
▁diccionario	-9.60395
▁mujeres	-9.60534
▁worked	-9.60618
▁visitar	-9.60706
▁Has	-9.60782
▁heart	-9.60885
▁paper	-9.60925
▁puesto	-9.60952
▁speaking	-9.61055
▁famous	-9.6116
▁examen	-9.61166
▁lista	-9.6124
▁whole	-9.61335
▁equivocado	-9.61672
▁cook	-9.61695
sta	-9.6173
▁gets	-9.61889
▁black	-9.61927
▁asleep	-9.61928
▁edificio	-9.61928
▁herself	-9.61928
▁decidió	-9.61928
▁vista	-9.61946
▁Déjame	-9.61963
▁amor	-9.62028
▁piensa	-9.62063
▁pequeña	-9.62479
▁needed	-9.62486
▁cup	-9.62486
▁último	-9.62703
tomó	-9.62736
▁popular	-9.63447
▁llover	-9.63469
▁biblioteca	-9.63484
▁running	-9.63485
▁taza	-9.63485
▁glasses	-9.63539
▁fuego	-9.63545
▁ice	-9.63586
▁lose	-9.63627
▁escuchar	-9.63742
▁win	-9.64223
▁decisión	-9.64271
▁floor	-9.64272
▁hurry	-9.64272
▁proud	-9.64272
▁dangerous	-9.64272
▁carne	-9.64324
▁salud	-9.64409
▁restaurante	-9.64559
▁sound	-9.64926
▁follow	-9.64941
▁strange	-9.64941
▁strong	-9.64987
▁Someone	-9.65067
▁quickly	-9.65079
▁paid	-9.65083
▁esperaba	-9.65098
▁tenido	-9.65101
▁montón	-9.65106
▁raining	-9.65324
Podrías	-9.6544
us	-9.65677
▁sería	-9.6579
▁different	-9.65804
▁dictionary	-9.65865
▁sombrero	-9.65865
▁éxito	-9.65865
▁library	-9.6588
▁trabajando	-9.65899
▁least	-9.65929
p	-9.65955
▁offer	-9.65955
▁bag	-9.66506
▁poder	-9.66665
▁crazy	-9.66671
▁fútbol	-9.66671
▁jardín	-9.66671
▁lluvia	-9.66671
▁baseball	-9.66672
▁exactly	-9.66678
▁entiendo	-9.6676
Va	-9.66956
▁conseguir	-9.6716
▁break	-9.67201
▁llama	-9.67235
▁telephone	-9.67327
▁vivo	-9.67341
▁worry	-9.6737
▁mala	-9.67478
▁empezó	-9.67485
▁dentro	-9.67486
▁interested	-9.67512
▁loved	-9.67577
▁sale	-9.67613
▁restaurant	-9.67818
▁justo	-9.67854
▁agree	-9.68007
▁four	-9.68079
▁club	-9.68306
▁caminar	-9.68328
b	-9.68623
▁waited	-9.68636
▁dogs	-9.68678
▁gatos	-9.68751
▁muerto	-9.69038
▁safe	-9.69066
▁garden	-9.69115
▁sitio	-9.69134
▁Dame	-9.69149
▁Com	-9.69176
▁weight	-9.69254
▁decirle	-9.69282
▁primer	-9.69298
▁anybody	-9.69342
▁cenar	-9.6962
▁thinks	-9.69697
▁played	-9.69714
▁favorito	-9.69828
▁front	-9.69963
▁choice	-9.69964
▁concert	-9.69964
▁exactamente	-9.69966
▁sentido	-9.69982
▁poner	-9.69996
▁errores	-9.70084
de	-9.70364
▁thank	-9.7039
▁camisa	-9.70676
▁explain	-9.7068
▁inteligente	-9.70733
▁treinta	-9.70804
▁frente	-9.7081
▁"¿	-9.70814
▁Ve	-9.70817
▁leyendo	-9.70817
▁baño	-9.70823
▁concierto	-9.70838
▁loco	-9.70969
▁takes	-9.71159
▁cry	-9.71554
▁blanco	-9.71567
▁poor	-9.71572
▁abogado	-9.71576
▁Deb	-9.7162
▁alrededor	-9.71647
▁encontró	-9.71652
▁atención	-9.71652
▁guitarra	-9.71661
▁Mañana	-9.71696
▁thirty	-9.71717
I	-9.71822
▁Now	-9.7186
▁eran	-9.71989
▁mistakes	-9.722
▁problems	-9.72207
▁return	-9.72383
▁probabl	-9.72392
▁vendrá	-9.7244
▁broken	-9.72452
▁guitar	-9.72497
▁béisbol	-9.72506
▁llorar	-9.72542
▁estará	-9.72543
▁pasando	-9.72564
En	-9.72947
ción	-9.73009
ited	-9.73268
▁dormido	-9.73285
▁sad	-9.73339
▁umbrella	-9.73369
▁jugando	-9.73373
▁siete	-9.73382
▁wear	-9.73503
▁seemed	-9.73556
▁evening	-9.73671
▁walked	-9.7369
▁aire	-9.73722
▁opened	-9.73729
▁mad	-9.73921
▁clases	-9.74132
▁peligro	-9.74214
▁paraguas	-9.74238
▁shirt	-9.74242
▁estudiando	-9.74253
▁Thank	-9.74276
▁hide	-9.74287
u	-9.7432
▁side	-9.74363
▁lucky	-9.74366
Cuánta	-9.74407
▁caso	-9.74563
▁pens	-9.74637
to	-9.74677
▁Piens	-9.74828
▁words	-9.74927
▁llamar	-9.74929
▁air	-9.75022
▁glass	-9.75055
▁Casi	-9.75115
▁dirección	-9.75115
▁television	-9.75115
▁certain	-9.75115
▁hat	-9.75127
▁road	-9.7513
▁pasada	-9.75141
▁Mis	-9.7521
hose	-9.75212
▁cambiar	-9.75223
in	-9.75303
▁realize	-9.75628
▁acaba	-9.75771
▁move	-9.75875
▁peor	-9.75933
▁sell	-9.75948
Puede	-9.75961
▁cuanto	-9.75997
▁People	-9.76
▁animales	-9.76047
▁missed	-9.762
▁quieren	-9.7659
▁expect	-9.76656
▁mía	-9.76685
▁talked	-9.76758
▁accept	-9.76762
▁deal	-9.76836
▁encontré	-9.76893
▁cayó	-9.76893
▁husband	-9.769
rought	-9.769
▁abuelo	-9.76903
▁sometimes	-9.77107
▁test	-9.77168
▁sent	-9.77253
▁movies	-9.77417
▁seguir	-9.77483
▁health	-9.77516
▁empezar	-9.77646
▁On	-9.77724
able	-9.7779
▁Everything	-9.77794
▁New	-9.77794
Queré	-9.77797
▁lawyer	-9.77799
▁seven	-9.77822
▁almuerzo	-9.7784
▁minute	-9.77904
▁Ven	-9.77947
▁learned	-9.78177
Cree	-9.78196
▁ganar	-9.78222
▁feeling	-9.78363
▁Bo	-9.78412
▁patient	-9.7864
▁comió	-9.78704
▁barco	-9.78707
▁deberes	-9.78806
▁Necesita	-9.789
▁clear	-9.79561
▁situación	-9.79621
▁OK	-9.79621
▁lying	-9.79626
▁estúpido	-9.7966
▁miró	-9.79672
▁driver	-9.79748
▁responder	-9.79753
▁Realmente	-9.79771
▁causa	-9.79842
▁pass	-9.8014
▁result	-9.80315
▁smoke	-9.80472
ir	-9.8052
▁attention	-9.80546
▁llamó	-9.80546
▁figure	-9.80548
▁fine	-9.80555
▁Quería	-9.80595
▁rato	-9.80606
▁Odi	-9.80642
▁forward	-9.80646
▁severa	-9.80692
▁men	-9.80852
▁Ni	-9.81219
▁pedir	-9.81235
▁completamente	-9.81485
▁piensas	-9.81711
▁dance	-9.82224
▁playa	-9.82286
▁Sus	-9.82366
▁arrive	-9.82383
▁danger	-9.82423
▁opinión	-9.82424
▁situation	-9.82424
▁rompió	-9.82425
▁twice	-9.82425
▁swimming	-9.82426
▁Paris	-9.82428
▁siendo	-9.82448
▁medio	-9.82467
▁rules	-9.8252
▁crying	-9.8255
▁case	-9.82647
▁visited	-9.82728
▁necesitas	-9.82743
▁irme	-9.83071
▁sala	-9.83352
▁pudiera	-9.83377
▁vacation	-9.83378
▁entró	-9.83378
▁dijiste	-9.83381
▁half	-9.8339
▁feed	-9.83416
▁Tenía	-9.83428
▁decision	-9.83447
▁invited	-9.8347
▁meat	-9.83494
▁hermosa	-9.83518
▁minuto	-9.83562
▁lago	-9.84051
▁normal	-9.8426
▁París	-9.84338
▁imposible	-9.84338
▁invierno	-9.84339
▁resolver	-9.8434
▁boca	-9.84342
▁Even	-9.84383
▁desk	-9.84389
▁alive	-9.84396
▁finally	-9.84418
▁arm	-9.845
▁apple	-9.84569
▁tenga	-9.8458
▁Compré	-9.84848
▁After	-9.85306
▁pienso	-9.85309
▁habría	-9.85311
▁ocupada	-9.85314
▁address	-9.85316
▁leaving	-9.85318
▁completely	-9.85327
▁solve	-9.85351
▁universidad	-9.85352
▁beach	-9.85416
▁seat	-9.8544
▁ayudarte	-9.8545
▁peligroso	-9.85457
▁peso	-9.85474
▁haría	-9.85477
▁sentó	-9.855
▁fishing	-9.85502
▁closed	-9.8554
▁digas	-9.85923
▁seeing	-9.85964
▁divertido	-9.8629
▁cuchillo	-9.8629
▁cuesta	-9.8629
▁worried	-9.86291
▁ello	-9.86307
rank	-9.86316
▁drinking	-9.86669
▁known	-9.868
▁vaso	-9.8695
Er	-9.87106
turned	-9.87157
▁papel	-9.87217
▁driving	-9.8728
▁terminó	-9.8728
▁blue	-9.8728
▁pieza	-9.87283
▁grandfather	-9.87302
▁atrás	-9.8733
▁montaña	-9.87523
▁ship	-9.87523
▁mountain	-9.87527
▁worth	-9.87599
co	-9.87814
▁pick	-9.87859
▁sal	-9.87967
▁pena	-9.8804
▁send	-9.88068
▁estaría	-9.88218
▁próxima	-9.8828
▁jamás	-9.88282
▁knife	-9.88282
▁carro	-9.88363
▁States	-9.88364
▁promise	-9.8838
▁weekend	-9.88479
▁triste	-9.885
▁haré	-9.88505
▁meses	-9.8851
▁wall	-9.88517
▁sleeping	-9.88649
▁recordar	-9.88707
est	-9.88781
▁animals	-9.88932
▁abrir	-9.89086
▁guess	-9.89223
▁Londres	-9.8929
▁capital	-9.8929
▁everybody	-9.8929
▁kitchen	-9.8929
▁abroad	-9.8929
▁machine	-9.8929
▁shopping	-9.8929
▁London	-9.89291
▁share	-9.89291
▁intentando	-9.89297
▁aeropuerto	-9.89301
▁mayoría	-9.89334
▁younger	-9.89335
▁Mucha	-9.89346
▁Muchos	-9.89372
▁amable	-9.89392
▁ticket	-9.89574
▁guy	-9.89607
▁F	-9.89634
▁control	-9.89916
▁casado	-9.90068
T	-9.90165
▁voz	-9.9031
▁writing	-9.9031
▁suppose	-9.9031
▁comido	-9.90311
▁cine	-9.90311
▁duele	-9.90318
▁venido	-9.90323
tion	-9.90414
▁promised	-9.90464
▁viven	-9.90562
▁pen	-9.90651
▁mantener	-9.90711
▁Sos	-9.90833
▁hiciera	-9.90863
▁vayas	-9.91004
▁pedí	-9.91128
▁mar	-9.91198
▁simple	-9.91248
▁aquel	-9.91296
▁women	-9.91342
▁either	-9.91449
▁less	-9.9164
▁boys	-9.91728
▁Va	-9.91798
▁eggs	-9.91977
▁huevos	-9.91994
▁dejes	-9.92015
▁morir	-9.9202
▁p	-9.92104
▁abrigo	-9.9239
▁hold	-9.92412
▁hiding	-9.9244
▁passed	-9.92524
▁llevaba	-9.92545
▁singing	-9.92545
▁sense	-9.92548
▁opinion	-9.92603
cia	-9.92617
remos	-9.92645
▁second	-9.92677
▁begin	-9.92738
▁Mira	-9.92809
▁debo	-9.92828
▁kiss	-9.93182
▁Ten	-9.93313
▁except	-9.93433
▁airport	-9.93435
▁impossible	-9.93435
▁medicine	-9.93435
▁traffic	-9.93436
▁coat	-9.93436
▁escritorio	-9.93437
▁entonces	-9.93438
▁Leave	-9.93452
▁sitting	-9.93478
▁worse	-9.9348
▁alta	-9.93498
▁torta	-9.93568
refiero	-9.9396
▁manzanas	-9.94092
▁Haz	-9.94094
▁doubt	-9.94206
▁llev	-9.9421
▁serious	-9.94446
Lo	-9.94461
▁diga	-9.94476
▁winter	-9.94501
▁bailar	-9.94704
▁respecto	-9.94783
▁viajar	-9.94798
▁also	-9.94804
▁silla	-9.94867
▁manzana	-9.94909
Tú	-9.95082
▁Here	-9.95135
▁grandes	-9.95238
▁R	-9.95263
▁kids	-9.95288
▁contar	-9.9531
espués	-9.95549
▁corriendo	-9.95575
▁estuviera	-9.95575
▁suele	-9.9558
▁Nothing	-9.95584
▁espera	-9.95609
▁cocinar	-9.95618
▁comprado	-9.95651
▁abrió	-9.9567
▁llaves	-9.9574
▁listening	-9.95763
▁sun	-9.95874
▁bird	-9.96002
▁piece	-9.9601
dónde	-9.96041
▁lleno	-9.96081
▁fight	-9.96474
▁venga	-9.96631
▁Thanks	-9.96647
▁jefe	-9.96661
▁written	-9.96661
▁caliente	-9.96662
▁Anoche	-9.9667
▁serio	-9.96741
▁lake	-9.96989
▁partido	-9.97044
▁recuerdo	-9.97068
▁nuestros	-9.97336
▁traje	-9.9736
▁somos	-9.97456
▁ideas	-9.97461
▁waste	-9.97642
▁clima	-9.97706
▁corazón	-9.9776
▁propia	-9.9776
▁siguiente	-9.9776
▁cielo	-9.9776
▁abierta	-9.97763
rá	-9.9777
▁quedarme	-9.97803
▁American	-9.98035
▁Today	-9.98045
▁shut	-9.98046
▁mensaje	-9.98151
▁afuera	-9.98208
▁liked	-9.98249
▁fotos	-9.98257
unque	-9.98297
▁estabas	-9.98366
Alguna	-9.98375
▁Nuev	-9.98446
▁carry	-9.98714
▁cats	-9.98853
▁success	-9.98869
▁felices	-9.98872
▁Stay	-9.98873
▁pescado	-9.98934
▁past	-9.98956
▁salt	-9.98967
▁expected	-9.99029
▁cause	-9.9909
▁taken	-9.99123
▁paciente	-9.99286
▁chocolate	-9.99287
▁gas	-9.99307
▁message	-9.99317
▁chair	-9.99331
▁rojo	-9.99336
▁brazo	-9.99357
▁precio	-9.9937
til	-9.99491
▁matar	-9.99684
▁irse	-9.99782
▁surprise	-9.99846
▁trató	-9.99995
▁ocurrió	-9.99998
▁detrás	-9.99998
▁viendo	-9.99999
▁ocho	-10
▁desayuno	-10.0001
▁Sabía	-10.0007
▁tie	-10.0013
▁Try	-10.0015
▁noticias	-10.0048
▁derecho	-10.005
▁apples	-10.009
ake	-10.0093
▁Francia	-10.0113
▁iglesia	-10.0113
▁shop	-10.0113
▁olvidó	-10.0114
▁mirando	-10.0114
▁Dime	-10.0116
▁public	-10.0117
▁favorita	-10.0119
▁queremos	-10.012
▁confiar	-10.0125
▁happens	-10.0149
▁horse	-10.0166
▁Lament	-10.0198
sk	-10.0208
▁Toda	-10.0214
go	-10.0216
▁foot	-10.0216
▁foreign	-10.0226
▁smart	-10.0227
▁Quizá	-10.0228
▁church	-10.0228
▁diciendo	-10.0228
▁sky	-10.0228
▁cuál	-10.0229
▁escribió	-10.0229
▁ball	-10.023
▁querés	-10.0234
▁Call	-10.0234
▁chicos	-10.0262
▁quiera	-10.0263
▁perfect	-10.0272
▁keys	-10.0272
▁correcto	-10.0273
▁warm	-10.0275
▁months	-10.0275
▁Espera	-10.0277
▁sentence	-10.028
▁os	-10.028
▁animal	-10.0281
▁funciona	-10.0281
▁gun	-10.0286
▁contento	-10.029
▁At	-10.0313
ting	-10.033
▁Con	-10.0343
▁France	-10.0344
▁easily	-10.0344
▁empleo	-10.0344
▁Osaka	-10.0344
▁comiendo	-10.0344
▁shot	-10.0345
▁compré	-10.0345
▁boss	-10.0345
▁leído	-10.0347
▁Alguno	-10.0349
▁refused	-10.035
▁gracias	-10.0352
▁pared	-10.037
▁bebe	-10.0373
▁ves	-10.0381
▁happening	-10.0385
iendo	-10.0388
▁learning	-10.0389
▁correr	-10.0391
▁wash	-10.0393
▁fault	-10.0397
caso	-10.0398
▁anciano	-10.0401
▁periódico	-10.0403
less	-10.0403
▁honest	-10.0421
▁caro	-10.043
▁empieza	-10.0462
▁necesario	-10.0462
▁soccer	-10.0462
▁difference	-10.0462
▁novio	-10.0463
▁across	-10.0471
▁carefully	-10.0473
▁hermanos	-10.051
▁reglas	-10.0513
▁domingos	-10.0517
▁negro	-10.0522
▁amiga	-10.0522
▁domingo	-10.0526
▁law	-10.0536
▁novela	-10.0537
▁pictures	-10.0537
▁teach	-10.0569
▁join	-10.0579
▁puente	-10.0581
▁boyfriend	-10.0582
▁pueblo	-10.0584
▁dejado	-10.0591
▁inside	-10.0592
▁walking	-10.0622
▁smile	-10.0625
▁estas	-10.0631
▁novel	-10.0633
▁languages	-10.0633
▁voice	-10.064
▁sigue	-10.0643
▁piso	-10.0646
ca	-10.0647
▁cream	-10.065
▁Acab	-10.065
Ya	-10.0658
▁pase	-10.0682
▁bath	-10.069
▁significa	-10.0692
▁future	-10.0702
▁sacó	-10.0702
▁bread	-10.0702
▁prisa	-10.0702
▁intentó	-10.0703
▁trata	-10.0723
▁sounds	-10.0724
▁Nada	-10.074
▁though	-10.0752
▁noticia	-10.0772
▁parar	-10.081
▁girls	-10.0816
▁Something	-10.0823
▁enemy	-10.0824
▁tarta	-10.0824
▁wake	-10.0824
▁habló	-10.0824
▁almorzar	-10.0824
▁pensaba	-10.0825
▁Hic	-10.0838
▁remind	-10.0851
▁vale	-10.0855
▁varia	-10.0858
▁ride	-10.0862
▁verme	-10.087
▁llega	-10.0875
▁quedar	-10.0883
▁hundred	-10.0891
▁asiento	-10.0899
▁count	-10.0934
▁O	-10.0934
▁estés	-10.0935
▁Chinese	-10.0947
▁Wait	-10.0947
▁college	-10.0947
▁enfadado	-10.0948
▁siguió	-10.0948
▁evitar	-10.0949
▁segura	-10.0949
▁campo	-10.0955
▁llegado	-10.0955
▁Supong	-10.0963
▁Podría	-10.0964
▁gana	-10.0976
▁escrito	-10.098
▁saben	-10.1002
▁pizza	-10.1016
▁pobre	-10.102
Se	-10.103
▁German	-10.1042
▁H	-10.1063
▁somewhere	-10.1072
▁encontrado	-10.1072
▁Oí	-10.1074
▁slowly	-10.1074
▁quedarse	-10.1078
▁contó	-10.108
▁laughed	-10.1081
▁demás	-10.109
▁cooking	-10.109
▁L	-10.1103
▁quiet	-10.1108
▁top	-10.1129
▁borracho	-10.1145
ió	-10.1146
Para	-10.1149
▁caballo	-10.115
▁eye	-10.1153
▁ama	-10.1154
▁ill	-10.1161
▁gustaba	-10.1178
▁escape	-10.1185
▁bolsa	-10.1199
▁couple	-10.1199
▁ayudó	-10.1199
▁policeman	-10.1199
▁América	-10.12
▁cita	-10.12
▁comenzó	-10.12
▁cartas	-10.1211
▁necesitaba	-10.1212
▁sentía	-10.1213
▁standing	-10.122
▁stolen	-10.123
bajo	-10.1236
▁entiende	-10.1236
▁For	-10.1244
▁report	-10.125
▁llegue	-10.1266
▁helado	-10.1271
▁propio	-10.1278
▁newspaper	-10.1279
▁price	-10.128
▁mil	-10.1284
▁wor	-10.1288
▁toca	-10.1294
▁decide	-10.1321
▁futuro	-10.1327
▁heavy	-10.1327
▁lloviendo	-10.1327
▁acostumbrado	-10.1327
▁mouth	-10.1329
▁pesar	-10.133
▁marry	-10.1331
▁quedé	-10.1334
▁failed	-10.1335
▁entered	-10.1337
▁shower	-10.1344
Con	-10.1354
▁decirme	-10.1359
▁Pon	-10.1382
▁pretend	-10.1384
▁regret	-10.1405
▁bridge	-10.1406
▁remain	-10.141
▁idioma	-10.1412
▁fat	-10.1425
ver	-10.1438
án	-10.1446
▁azúcar	-10.1457
▁marido	-10.1457
▁casó	-10.1458
▁necessary	-10.1459
▁ayudarme	-10.1473
▁pescar	-10.1482
▁aware	-10.1493
▁Alguna	-10.1515
▁consider	-10.1517
▁orgulloso	-10.1541
▁daño	-10.1541
▁nació	-10.1542
▁larga	-10.1544
▁fix	-10.1576
aste	-10.1579
▁prison	-10.1586
▁experiencia	-10.1588
▁nervous	-10.1588
▁público	-10.1588
▁funny	-10.1589
▁hacía	-10.1592
▁fear	-10.1592
▁echar	-10.1592
▁tendrá	-10.1594
▁presidente	-10.1598
▁moved	-10.1611
▁compras	-10.1619
or	-10.1623
▁siente	-10.1635
Podría	-10.1641
▁fall	-10.1643
▁eight	-10.1695
▁sign	-10.1706
▁correo	-10.1708
▁enfermedad	-10.1715
▁fly	-10.1716
▁rock	-10.1721
▁Every	-10.1721
▁durmiendo	-10.1722
▁Kyoto	-10.1722
onozco	-10.1723
▁humor	-10.1723
▁button	-10.1724
▁suelo	-10.1727
▁Was	-10.1729
▁dientes	-10.1742
▁limpiar	-10.1757
▁beat	-10.1772
▁hará	-10.1778
▁correct	-10.1779
▁Habla	-10.1798
▁enamorado	-10.1812
Esto	-10.1812
▁f	-10.1815
▁pájaro	-10.1818
▁experience	-10.1841
▁diferencia	-10.1847
ought	-10.1856
▁green	-10.1857
▁storm	-10.1857
▁native	-10.1857
▁tormenta	-10.1857
▁semanas	-10.1859
▁G	-10.1873
▁lend	-10.1876
▁brothers	-10.1939
▁famoso	-10.1952
▁gift	-10.1953
▁guys	-10.1953
▁bottle	-10.1954
▁sentado	-10.1956
▁joke	-10.1956
▁especial	-10.1984
▁general	-10.1987
▁per	-10.1988
▁deep	-10.1988
▁film	-10.1994
▁proyecto	-10.1994
▁twenty	-10.1994
▁Perdí	-10.1994
▁thousand	-10.1994
▁zoo	-10.1994
▁wallet	-10.1994
▁blood	-10.1995
▁blind	-10.1996
▁wonderful	-10.1997
▁viste	-10.1999
▁Solía	-10.2004
▁pensé	-10.2008
▁kissed	-10.201
▁bar	-10.2046
▁paseo	-10.2047
▁perfecto	-10.2049
▁clock	-10.2095
▁diferente	-10.2097
▁sino	-10.2108
▁list	-10.2115
▁plans	-10.2119
▁verlo	-10.2119
▁save	-10.2123
▁enferma	-10.2133
▁grew	-10.2133
▁stood	-10.2133
▁fruit	-10.2133
▁Dios	-10.2134
▁empty	-10.2134
▁Dile	-10.2136
▁sugar	-10.2137
▁contacto	-10.2162
▁seas	-10.2173
▁ayude	-10.2192
▁dado	-10.2197
▁owe	-10.2221
▁fact	-10.2239
▁preocupado	-10.2241
▁azul	-10.2267
▁claro	-10.2273
▁corbata	-10.2273
▁Nuestra	-10.2273
▁sintió	-10.2275
▁means	-10.2278
Desearía	-10.2278
▁agradable	-10.2279
▁received	-10.228
▁bother	-10.2294
▁eats	-10.2295
▁decirte	-10.2316
ban	-10.2343
▁date	-10.2348
▁mejores	-10.236
▁Alg	-10.2366
▁veía	-10.2373
▁bonita	-10.2381
▁igual	-10.2381
▁botella	-10.2384
▁resto	-10.2386
▁herido	-10.239
▁Uno	-10.24
▁borrow	-10.2404
▁discuss	-10.2404
▁Jackson	-10.2416
▁abuela	-10.2416
▁hicieron	-10.2416
▁picnic	-10.2416
▁taught	-10.2416
▁beginning	-10.2416
▁translate	-10.2417
▁worst	-10.2418
▁aquella	-10.2419
▁grave	-10.2423
▁usa	-10.2451
▁prestar	-10.2454
▁planes	-10.2482
▁India	-10.2514
▁ven	-10.2515
▁Sabe	-10.2515
nas	-10.2526
▁prueba	-10.2531
▁smell	-10.2532
▁Tal	-10.2545
▁tras	-10.2545
▁Europe	-10.256
▁despierto	-10.2561
▁discurso	-10.2561
▁vosotros	-10.2561
▁oferta	-10.2561
▁tuviera	-10.2561
▁suena	-10.2562
▁matemáticas	-10.2568
▁pelota	-10.2571
▁smiled	-10.2579
▁arma	-10.2587
imos	-10.2596
▁watched	-10.2618
▁Re	-10.2644
▁charge	-10.2656
▁leaves	-10.2663
▁Sin	-10.268
▁line	-10.2685
▁Most	-10.2696
▁attend	-10.27
▁común	-10.2706
▁Saturday	-10.2708
▁negó	-10.2708
▁information	-10.2708
▁decidido	-10.2708
▁veinte	-10.2708
▁información	-10.2708
▁prometió	-10.2708
▁planning	-10.2709
▁inmediatamente	-10.2709
▁totalmente	-10.2709
▁tratando	-10.2711
▁soup	-10.2711
▁sight	-10.2717
qué	-10.2722
ong	-10.274
▁llena	-10.2764
ic	-10.2767
▁buenos	-10.2771
▁yen	-10.2783
idad	-10.2784
▁staying	-10.2794
▁grow	-10.2799
▁Writ	-10.2808
▁haces	-10.2812
▁murder	-10.2843
▁apena	-10.2846
▁speech	-10.285
▁valor	-10.2851
▁village	-10.2857
▁Europa	-10.2857
▁levantó	-10.2857
▁máquina	-10.2857
▁luego	-10.2857
▁built	-10.2858
▁common	-10.2858
▁verdaderamente	-10.2859
▁sopa	-10.2862
▁An	-10.2886
ne	-10.2888
▁haberlo	-10.2897
▁odia	-10.2897
▁fit	-10.2898
amente	-10.2918
ia	-10.2931
▁exam	-10.2979
▁cambio	-10.2982
▁tuyo	-10.2988
h	-10.2989
▁junto	-10.2991
▁succeed	-10.2996
▁feelings	-10.2997
▁crowd	-10.2998
nte	-10.2998
▁encima	-10.3009
▁mamá	-10.3009
▁nueve	-10.3009
▁assume	-10.3009
▁roto	-10.3009
▁sorprendió	-10.3009
▁enojado	-10.3009
▁guapa	-10.3009
▁moon	-10.301
▁quise	-10.301
▁poca	-10.301
▁parado	-10.3017
▁conocía	-10.3019
▁amo	-10.302
▁darle	-10.3023
▁sepa	-10.3101
▁Tur	-10.3131
▁toma	-10.3131
▁carrera	-10.3133
▁enemigo	-10.3142
▁trees	-10.3149
▁ley	-10.316
▁anywhere	-10.3163
▁primavera	-10.3163
▁repente	-10.3163
▁silencio	-10.3163
▁studied	-10.3163
▁mintiendo	-10.3163
▁apartment	-10.3163
▁choose	-10.3164
▁soportar	-10.3168
▁single	-10.3169
▁vivía	-10.3169
▁tomado	-10.3172
▁alegr	-10.3177
▁type	-10.3177
▁sentimientos	-10.3178
▁Br	-10.318
▁rang	-10.3184
▁God	-10.3203
▁actually	-10.3208
ch	-10.3224
▁sorprendido	-10.3297
▁alegra	-10.3303
▁deserve	-10.3304
▁coger	-10.3313
▁menor	-10.3314
▁aceptar	-10.3314
▁Fuji	-10.3319
▁alemán	-10.3319
▁conocido	-10.3319
▁project	-10.3319
▁slept	-10.3319
▁sorpresa	-10.3319
▁llegué	-10.3319
▁botón	-10.3319
▁enseñó	-10.332
▁teeth	-10.3322
▁guilty	-10.3322
▁podrá	-10.3322
▁bill	-10.3325
▁quedarte	-10.3326
▁locked	-10.3331
▁llegará	-10.3331
▁ech	-10.334
▁buenas	-10.3347
▁rule	-10.3359
▁puedas	-10.3364
▁Quere	-10.3369
▁weeks	-10.3375
▁personal	-10.3383
▁vario	-10.3396
▁rey	-10.3422
▁See	-10.3424
▁andar	-10.3436
ri	-10.3438
▁leg	-10.3443
▁estudia	-10.3458
▁apologize	-10.3463
▁verde	-10.3467
▁museum	-10.3478
▁yellow	-10.3478
▁bosque	-10.3478
▁museo	-10.3478
▁paz	-10.3478
▁papá	-10.3478
▁earth	-10.3478
▁tonto	-10.348
▁lentes	-10.348
Eso	-10.3514
▁Di	-10.3529
▁calm	-10.355
bido	-10.3552
Estaré	-10.3562
▁abajo	-10.3568
▁breath	-10.358
▁tengas	-10.3607
▁duda	-10.3607
▁plays	-10.3608
▁pintura	-10.3621
▁convince	-10.3624
▁cards	-10.3627
▁president	-10.3628
▁admit	-10.3629
▁vuelto	-10.3639
▁grandmother	-10.3639
▁tampoco	-10.3639
▁bike	-10.3639
▁cheese	-10.3639
▁fence	-10.3639
▁resfriado	-10.3639
▁habrá	-10.3639
▁mitad	-10.364
▁earlier	-10.364
▁querría	-10.364
hrew	-10.364
▁ganó	-10.364
▁nine	-10.3641
▁prestado	-10.3642
▁pertenece	-10.3643
▁nervioso	-10.3646
▁Ape	-10.365
▁player	-10.3661
▁likely	-10.3663
▁yours	-10.3664
▁agreed	-10.3669
▁quitó	-10.3673
▁luna	-10.3674
▁paso	-10.3676
▁dan	-10.3682
▁olvides	-10.3705
▁bear	-10.3706
▁Tené	-10.3715
▁lavar	-10.3723
▁hacen	-10.3725
▁Les	-10.3727
▁Tan	-10.3741
▁tele	-10.3749
▁finger	-10.3794
▁idiota	-10.3798
▁painting	-10.38
▁Children	-10.3803
▁Show	-10.3803
▁funeral	-10.3803
▁intención	-10.3803
▁jóvenes	-10.3803
▁medicina	-10.3803
▁seguridad	-10.3803
▁wedding	-10.3804
▁immediately	-10.3804
▁held	-10.3805
▁extra	-10.3805
▁hacerte	-10.3805
▁pair	-10.3806
▁web	-10.382
▁Were	-10.3825
▁forgive	-10.3848
▁pájaros	-10.385
▁pone	-10.3879
▁respect	-10.3897
▁películas	-10.3935
béis	-10.3951
▁grupo	-10.3957
▁esperanza	-10.3957
▁vieja	-10.3959
▁segundo	-10.3959
▁drinks	-10.396
▁Life	-10.397
▁Somebody	-10.397
▁despacio	-10.397
▁prisión	-10.397
▁llueve	-10.397
▁Two	-10.397
▁ahead	-10.397
▁classroom	-10.397
▁satisfied	-10.397
▁boat	-10.3971
▁escuchando	-10.3972
▁ladrón	-10.3972
▁history	-10.3972
▁liar	-10.3973
ur	-10.3973
▁olvidado	-10.3973
▁taller	-10.3973
▁dijeron	-10.3975
▁culpable	-10.3976
▁painted	-10.3983
▁returned	-10.3996
▁intentar	-10.4032
▁Que	-10.4053
▁asking	-10.4062
Usted	-10.409
▁post	-10.41
id	-10.4104
▁enter	-10.4106
▁computador	-10.4119
▁negocios	-10.4122
1	-10.4126
▁alarm	-10.413
▁cuidar	-10.4132
▁ordenador	-10.4133
xcuse	-10.4138
▁Alemania	-10.4139
▁Canadá	-10.4139
▁memoria	-10.4139
▁woke	-10.4139
▁cruel	-10.4139
▁corto	-10.4139
▁diario	-10.414
▁rápidamente	-10.414
▁premio	-10.4141
▁ring	-10.4142
▁hermoso	-10.4142
▁paint	-10.4143
▁position	-10.4143
▁volverá	-10.4145
▁cerrar	-10.415
▁harder	-10.4152
▁allowed	-10.4153
▁árboles	-10.4154
▁picked	-10.416
▁star	-10.4161
▁king	-10.4162
▁listened	-10.4174
▁Germany	-10.418
▁Pas	-10.4184
▁fired	-10.4201
▁esas	-10.4214
▁Hol	-10.4224
▁Recuerd	-10.4229
▁Am	-10.423
▁temo	-10.424
▁interesa	-10.4253
▁queso	-10.4258
▁rid	-10.4258
S	-10.4264
▁isla	-10.4282
▁laugh	-10.4282
▁special	-10.4285
ría	-10.4295
▁recuerda	-10.4309
▁espalda	-10.4309
▁support	-10.4311
▁ashamed	-10.4312
▁gustó	-10.4312
▁izquierda	-10.4312
▁multitud	-10.4312
▁paciencia	-10.4312
▁tráfico	-10.4312
▁hablo	-10.4312
▁Kioto	-10.4312
▁cansada	-10.4313
▁suddenly	-10.4314
▁faster	-10.4317
▁tema	-10.4318
▁covered	-10.432
▁allow	-10.432
▁Haga	-10.432
▁island	-10.4322
▁noticed	-10.4326
▁probable	-10.4332
▁dressed	-10.4344
▁otras	-10.4419
el	-10.4454
ación	-10.4462
▁principio	-10.448
cogió	-10.4482
▁escuchó	-10.4487
▁furniture	-10.4487
▁gafas	-10.4487
▁video	-10.4487
▁government	-10.4487
▁headache	-10.4487
▁oyó	-10.4488
▁wears	-10.4489
▁raro	-10.449
▁cambiado	-10.4491
▁tía	-10.4491
▁bedroom	-10.4491
▁finalmente	-10.4494
▁interesado	-10.4495
▁oscuro	-10.4497
▁aunt	-10.4499
▁Canada	-10.4502
▁traer	-10.4505
▁Será	-10.4507
▁judge	-10.4513
▁correcta	-10.4515
▁buscar	-10.4518
▁sonó	-10.4522
▁estábamos	-10.453
▁lied	-10.4533
▁alcohol	-10.4535
▁sientes	-10.4542
▁honesto	-10.4562
▁hablan	-10.4574
▁sacar	-10.4579
▁platos	-10.4599
▁Lleva	-10.4605
▁100	-10.4612
ped	-10.4613
▁forever	-10.4619
▁fond	-10.462
▁stole	-10.4621
iste	-10.465
ful	-10.4658
▁Spanish	-10.4666
▁absent	-10.4666
▁arroz	-10.4666
▁courage	-10.4666
▁español	-10.4666
▁vuelo	-10.4666
▁Probablemente	-10.4666
▁sofá	-10.4666
▁quiso	-10.4666
▁robado	-10.4666
▁theater	-10.4666
▁subject	-10.4666
▁mostró	-10.4666
Preferiría	-10.4667
▁bajó	-10.4668
▁solución	-10.4668
▁entera	-10.4672
▁perdí	-10.4672
▁avoid	-10.4673
▁golpeó	-10.4675
▁scared	-10.4675
▁digo	-10.4676
▁ojo	-10.4677
▁casarse	-10.4679
ord	-10.4682
▁vegetables	-10.4693
▁tratar	-10.4697
▁missing	-10.47
▁profesora	-10.4749
▁sang	-10.4793
▁pastel	-10.4841
▁notice	-10.4842
▁oro	-10.4843
▁Friday	-10.4847
▁course	-10.4847
▁cuerda	-10.4847
▁cáncer	-10.4847
▁delicious	-10.4847
▁ejercicio	-10.4847
▁nobody	-10.4847
▁somebody	-10.4847
▁viento	-10.4847
▁viernes	-10.4847
▁boring	-10.4847
▁horrible	-10.4848
▁adelante	-10.4848
▁preparado	-10.4849
▁Since	-10.485
▁hielo	-10.485
▁check	-10.4851
▁hubo	-10.4851
▁rains	-10.4851
▁disappointed	-10.4852
▁trampa	-10.4853
▁vuestro	-10.4854
▁llamada	-10.4855
▁escribe	-10.4855
▁complaining	-10.4855
▁arrested	-10.4856
▁chino	-10.4856
▁preguntaba	-10.486
▁hago	-10.4861
▁map	-10.4862
▁bored	-10.4865
▁Estuv	-10.4873
▁amaba	-10.4873
▁explained	-10.4875
▁washing	-10.4885
▁explicar	-10.4889
▁ended	-10.4896
▁Llev	-10.4907
▁soldados	-10.4934
▁rent	-10.4957
▁Decid	-10.4963
▁c	-10.4981
ga	-10.4986
▁crime	-10.4989
▁depende	-10.5013
▁Chicago	-10.5033
▁hobby	-10.5033
▁innocent	-10.5033
▁introduce	-10.5033
▁jacket	-10.5033
▁japoneses	-10.5033
▁license	-10.5033
▁purpose	-10.5033
▁sonrisa	-10.5033
▁straight	-10.5033
▁vuestra	-10.5033
▁body	-10.5033
▁truck	-10.5033
▁rice	-10.5033
▁guste	-10.5033
▁dropped	-10.5033
▁Read	-10.5033
▁llorando	-10.5034
vimos	-10.5034
▁bolígrafo	-10.5039
▁pierna	-10.5045
▁chicas	-10.5053
▁nuevos	-10.5076
▁suit	-10.508
▁enviar	-10.5084
Así	-10.5089
▁necesitamos	-10.5091
▁ex	-10.5092
ciones	-10.5099
▁escucha	-10.5102
▁answered	-10.5114
▁Encontré	-10.5131
▁escaleras	-10.5138
▁ducha	-10.5153
▁arreglar	-10.5159
▁desayunar	-10.5179
▁bare	-10.5183
▁juega	-10.5185
▁peace	-10.5212
ut	-10.5216
▁fresh	-10.5221
▁Unfortunately	-10.5221
▁aburrido	-10.5221
▁linda	-10.5221
▁understood	-10.5221
▁Sometimes	-10.5221
▁stuck	-10.5221
▁recognize	-10.5221
▁Ningun	-10.5221
▁prize	-10.5222
▁profundamente	-10.5222
▁caminando	-10.5222
▁sucedió	-10.5222
▁cerrada	-10.5228
▁yenes	-10.5229
▁frase	-10.523
▁cancer	-10.523
▁reached	-10.523
▁cargo	-10.5232
▁fruta	-10.5234
▁verdadero	-10.5234
▁precios	-10.5235
▁madera	-10.5236
▁promesa	-10.5236
▁race	-10.5237
▁bella	-10.5237
▁flower	-10.5239
▁dura	-10.5243
▁darme	-10.5244
▁deseo	-10.5244
▁deja	-10.525
▁ordered	-10.5253
▁estuve	-10.5257
▁estáis	-10.5258
▁paró	-10.5264
nd	-10.5271
▁CD	-10.5274
P	-10.5285
Sería	-10.5288
▁convencer	-10.5293
▁casada	-10.5295
io	-10.5298
▁sports	-10.5332
▁cars	-10.5333
▁birds	-10.5338
▁Os	-10.5339
▁belongs	-10.5346
▁appreciate	-10.5398
▁natural	-10.5403
▁decidir	-10.5408
▁card	-10.541
▁explanation	-10.5414
▁frecuencia	-10.5414
▁injured	-10.5414
▁inocente	-10.5414
▁intelligent	-10.5414
▁lápiz	-10.5414
▁opción	-10.5414
▁tarjeta	-10.5414
▁sonrió	-10.5414
▁duty	-10.5414
▁sweater	-10.5414
▁accused	-10.5414
▁conductor	-10.5414
▁tenés	-10.5415
▁dishes	-10.5415
▁tuya	-10.5416
▁centro	-10.5417
▁invite	-10.5418
▁satisfecho	-10.5427
▁convinced	-10.5432
▁wood	-10.5433
▁legs	-10.5433
▁saved	-10.5435
▁low	-10.5436
▁tears	-10.5436
▁extreme	-10.5437
▁negocio	-10.5444
▁actor	-10.5449
▁veré	-10.5474
▁orden	-10.5485
▁mirar	-10.5518
▁permitir	-10.5526
▁conocí	-10.5537
▁agrada	-10.5543
▁irte	-10.5572
▁familiar	-10.5585
▁heat	-10.5591
▁fail	-10.5597
▁vivid	-10.5602
▁oí	-10.5607
▁sentí	-10.5609
▁account	-10.561
▁Yesterday	-10.561
▁chaqueta	-10.561
▁consciente	-10.561
▁cuerpo	-10.561
▁midnight	-10.561
▁permiso	-10.561
▁awake	-10.561
▁Help	-10.561
▁viviendo	-10.561
▁behavior	-10.561
▁throw	-10.561
▁power	-10.5611
▁absolutely	-10.5611
▁averiguar	-10.5613
▁normalmente	-10.5615
▁manejar	-10.5618
▁ponga	-10.5621
▁mapa	-10.5621
▁seriously	-10.5622
▁cantante	-10.5625
▁incendio	-10.5626
▁rica	-10.5626
▁sangre	-10.5626
▁singer	-10.5628
▁nativo	-10.5628
▁pencil	-10.563
▁broma	-10.5631
▁darte	-10.5637
▁mentira	-10.5637
▁elegir	-10.564
▁speaker	-10.5644
▁Viv	-10.5646
▁cualquiera	-10.5652
▁crimen	-10.5658
▁irá	-10.5671
▁romper	-10.569
▁extraña	-10.5719
▁Han	-10.5719
▁conocen	-10.5728
▁human	-10.5732
▁guard	-10.5742
El	-10.5747
Conoce	-10.5759
▁believed	-10.5773
Tené	-10.5773
▁luck	-10.578
▁pies	-10.579
▁levanta	-10.58
▁keeps	-10.5808
▁Ambos	-10.581
▁England	-10.581
▁Harvard	-10.581
▁chicken	-10.581
▁japonesa	-10.581
▁medianoche	-10.581
▁cash	-10.581
▁escribiendo	-10.581
▁respondió	-10.581
▁explicación	-10.581
▁entire	-10.5812
▁middle	-10.5813
▁partir	-10.5815
▁rara	-10.5826
▁group	-10.5831
▁entrada	-10.5835
▁roja	-10.5836
Pode	-10.5845
aré	-10.5856
▁sold	-10.5861
▁comenzar	-10.5884
robó	-10.5889
▁soldiers	-10.5905
w	-10.5915
▁hables	-10.5924
▁prove	-10.5972
ted	-10.5987
▁hid	-10.5995
▁fool	-10.6001
▁attack	-10.6001
▁vote	-10.6004
áis	-10.6004
▁risk	-10.601
▁cool	-10.6012
▁view	-10.6014
▁encuentro	-10.6014
▁espacio	-10.6014
▁fiebre	-10.6014
▁passport	-10.6014
▁toilet	-10.6014
▁space	-10.6014
▁stick	-10.6014
▁dirty	-10.6015
▁dispuesto	-10.6015
▁probablemente	-10.6017
▁descanso	-10.6023
▁wind	-10.6023
les	-10.6024
▁shy	-10.6035
▁fighting	-10.6037
▁boda	-10.6039
▁línea	-10.6039
▁modo	-10.604
▁accepted	-10.6042
▁vuelve	-10.6043
▁países	-10.6043
▁resultado	-10.605
▁cookies	-10.6064
jo	-10.6068
▁healthy	-10.6082
▁idiomas	-10.6084
▁baja	-10.6088
▁employees	-10.6089
▁conocer	-10.61
▁empleados	-10.6104
▁corta	-10.6137
adamente	-10.6139
ies	-10.6173
▁protect	-10.6187
▁empeza	-10.6198
▁fair	-10.6216
▁hung	-10.6219
▁Finalmente	-10.6222
▁Inglaterra	-10.6222
▁consiguió	-10.6222
▁pasaporte	-10.6222
▁quisiera	-10.6222
▁themselves	-10.6222
▁mood	-10.6222
▁cortó	-10.6222
▁salvo	-10.6222
▁billetera	-10.6223
▁flor	-10.6223
▁windows	-10.6224
▁bigger	-10.6225
▁aprendiendo	-10.6225
▁Dije	-10.6226
▁pedirle	-10.6228
▁escapar	-10.6228
▁enseñar	-10.6229
▁ocultar	-10.6233
▁enseña	-10.6233
▁importar	-10.6235
▁laughing	-10.6236
▁bote	-10.6236
▁War	-10.6248
▁muchacho	-10.6256
▁sábado	-10.6256
▁página	-10.6256
▁deporte	-10.6258
▁discutir	-10.6265
ero	-10.6275
ity	-10.6278
▁corre	-10.6293
▁limpia	-10.6293
▁handed	-10.6304
▁arte	-10.6309
▁dejara	-10.6342
▁dicen	-10.6348
.000	-10.6353
ma	-10.6371
▁encantan	-10.6379
Él	-10.6386
▁Italia	-10.639
▁extrem	-10.6399
▁esos	-10.6405
▁querías	-10.6419
▁cien	-10.6433
▁absoluta	-10.6435
▁fresco	-10.6435
▁university	-10.6435
▁spring	-10.6435
▁acabó	-10.6435
▁casualidad	-10.6435
▁neither	-10.6435
▁derecha	-10.6435
▁ambos	-10.6435
▁bromeando	-10.6435
▁Mother	-10.6436
▁involved	-10.6437
▁Italy	-10.6437
▁mató	-10.644
x	-10.645
▁idiot	-10.6454
▁canciones	-10.6459
▁expecting	-10.6462
▁preocupes	-10.6463
▁tierra	-10.6466
▁Sal	-10.6467
▁política	-10.647
▁magazine	-10.6473
▁encuentra	-10.6473
▁maleta	-10.6473
▁Dice	-10.6484
▁fingi	-10.6487
ers	-10.649
rse	-10.6505
▁rained	-10.6517
▁sisters	-10.6525
▁desea	-10.6528
▁hang	-10.6535
▁dreams	-10.6547
▁tanta	-10.6556
ido	-10.6576
▁dad	-10.6595
▁duerme	-10.6606
▁treat	-10.6611
k	-10.6613
Podé	-10.6619
cluso	-10.6621
▁preguntar	-10.6627
▁relax	-10.6628
▁piernas	-10.6638
▁ventanas	-10.6638
▁sentir	-10.6646
La	-10.6646
▁vuelva	-10.6649
▁contact	-10.665
▁cheap	-10.6651
▁cambió	-10.6652
▁seldom	-10.6652
▁televisor	-10.6652
▁harto	-10.6652
▁lonely	-10.6652
▁comportamiento	-10.6652
▁asesinato	-10.6652
▁oscuridad	-10.6652
▁dancing	-10.6652
▁brush	-10.6652
▁propuesta	-10.6652
▁Father	-10.6653
▁recently	-10.6654
▁fever	-10.6655
▁explicó	-10.6656
▁Hub	-10.666
▁exist	-10.6664
il	-10.6667
▁considered	-10.6673
▁Ésta	-10.6674
▁solas	-10.6677
▁harm	-10.6678
▁mente	-10.668
▁fed	-10.6684
▁gusto	-10.6686
▁followed	-10.6687
▁recibir	-10.6692
▁bonito	-10.6693
▁revista	-10.6696
▁dices	-10.6696
ci	-10.6701
▁suyo	-10.6705
ness	-10.6709
▁hermanas	-10.6737
▁feels	-10.6751
▁calling	-10.6761
▁Habl	-10.6766
▁casar	-10.677
▁agarr	-10.6772
▁begins	-10.6799
▁record	-10.6802
▁hablado	-10.6809
▁apareció	-10.6837
▁honor	-10.686
eme	-10.6863
mo	-10.6874
▁camión	-10.6874
▁countries	-10.6874
▁cárcel	-10.6874
▁genial	-10.6874
▁pérdida	-10.6874
▁roof	-10.6874
▁stuff	-10.6874
▁destino	-10.6874
▁suicide	-10.6875
▁mentiroso	-10.6875
▁cometido	-10.6875
▁corrió	-10.6876
▁odio	-10.6876
▁robaron	-10.6877
▁admitt	-10.6877
▁cried	-10.6877
▁size	-10.6877
▁importaría	-10.6878
▁suspect	-10.6878
▁techo	-10.6879
▁managed	-10.6882
▁Op	-10.6883
▁copy	-10.6886
▁cerró	-10.6887
▁raised	-10.6888
▁fácilmente	-10.689
▁sooner	-10.6891
▁besó	-10.6899
▁muebles	-10.6901
▁volar	-10.6903
▁exercise	-10.6914
▁meaning	-10.6918
▁habit	-10.6919
▁Tuv	-10.6921
▁trozo	-10.6922
▁pocket	-10.6922
▁motor	-10.693
▁daré	-10.6933
▁pas	-10.6937
▁dedos	-10.6937
▁miles	-10.6939
ja	-10.694
▁parecen	-10.6941
cted	-10.6946
▁Jam	-10.6964
▁land	-10.6977
▁meant	-10.7003
▁vimos	-10.7013
v	-10.7017
▁pintar	-10.7036
quiera	-10.7058
▁talks	-10.7066
▁És	-10.7066
▁Iré	-10.7079
▁das	-10.7081
▁drop	-10.7087
▁útil	-10.7095
▁gold	-10.71
giving	-10.7101
▁Hokkaido	-10.7102
▁inmediato	-10.7102
▁jealous	-10.7102
▁memory	-10.7102
▁ourselves	-10.7102
▁propósito	-10.7102
▁solution	-10.7102
▁thief	-10.7102
▁unlikely	-10.7102
▁excelente	-10.7102
▁rope	-10.7102
▁facilidad	-10.7102
▁distinguir	-10.7102
▁famosa	-10.7102
▁ciego	-10.7102
▁mediodía	-10.7102
▁salido	-10.7102
▁forgotten	-10.7102
▁recibió	-10.7105
▁pregunté	-10.7108
▁paga	-10.7109
▁simplemente	-10.7109
▁climbed	-10.7113
▁llamado	-10.7123
▁galletas	-10.7124
▁art	-10.7132
▁flight	-10.7148
▁merece	-10.715
Os	-10.715
▁supiera	-10.7153
▁piedra	-10.7154
▁dulce	-10.7157
▁neighbor	-10.7157
dor	-10.7163
▁jokes	-10.7164
▁entero	-10.7165
▁pelea	-10.7173
▁stranger	-10.7174
▁sueños	-10.7197
▁compar	-10.7199
▁rumor	-10.7201
Y	-10.722
▁parada	-10.7229
▁necesitan	-10.7268
▁ninguno	-10.727
▁aff	-10.7288
▁comí	-10.7306
▁diet	-10.7315
▁appear	-10.7322
▁Da	-10.7322
miento	-10.7323
▁sabemos	-10.7326
▁similar	-10.7328
▁rude	-10.7334
▁barato	-10.7334
▁demasiada	-10.7334
▁stairs	-10.7334
▁murieron	-10.7334
▁instead	-10.7334
▁teatro	-10.7334
▁llame	-10.7334
▁feet	-10.7334
▁escondiendo	-10.7334
▁peces	-10.7334
▁sabido	-10.7334
▁corner	-10.7335
▁denied	-10.7335
▁Speak	-10.7335
▁gobierno	-10.7335
▁math	-10.7335
▁excuse	-10.7335
▁fuiste	-10.7336
▁pegó	-10.7336
▁useful	-10.7337
▁cumplir	-10.7337
▁mirada	-10.7339
iento	-10.7339
▁pistola	-10.734
▁delante	-10.7341
▁diría	-10.7341
▁forced	-10.7343
▁programa	-10.7347
▁continued	-10.7351
▁doble	-10.7351
▁subió	-10.7353
▁acabado	-10.7354
▁washed	-10.7359
▁dieta	-10.7361
▁sos	-10.7365
▁pasará	-10.7374
▁debía	-10.7376
cabo	-10.7377
▁cometer	-10.738
na	-10.7381
▁fábrica	-10.7384
▁bolsillo	-10.7393
▁claim	-10.7395
▁kid	-10.7397
▁quedaré	-10.7415
▁Ést	-10.7424
▁helping	-10.743
▁lock	-10.7446
▁volveré	-10.7461
▁cortar	-10.7465
▁invitados	-10.7467
▁cola	-10.7473
▁trap	-10.7473
vivió	-10.7478
▁ante	-10.7478
▁nuestras	-10.7479
▁ocupados	-10.7483
eron	-10.7491
▁gra	-10.7526
▁preocupa	-10.7527
▁anda	-10.7536
▁welcome	-10.7558
▁planea	-10.7565
▁principal	-10.7566
▁menu	-10.7571
ambién	-10.7572
▁accustom	-10.7572
▁comienza	-10.7572
▁cuadro	-10.7572
▁discusión	-10.7572
▁disparó	-10.7572
▁felicidad	-10.7572
▁jazz	-10.7572
▁joking	-10.7572
▁particular	-10.7572
▁recommend	-10.7572
▁temperatura	-10.7572
▁quince	-10.7572
▁juice	-10.7572
▁educación	-10.7572
▁comfortable	-10.7573
▁obvious	-10.7573
▁pez	-10.7573
▁blew	-10.7573
▁pity	-10.7573
▁basura	-10.7573
▁fría	-10.7575
▁sushi	-10.7575
▁confused	-10.7577
▁invitó	-10.7578
▁tomando	-10.7579
▁compraste	-10.7583
▁Vaya	-10.7584
▁míos	-10.7586
▁Oh	-10.759
▁lágrimas	-10.7592
▁prepared	-10.7594
▁fixed	-10.7595
▁bomba	-10.7597
▁brave	-10.7597
▁escaped	-10.7603
pareció	-10.7629
▁Estudi	-10.7631
▁season	-10.7634
▁dedo	-10.7641
▁correos	-10.7648
▁vender	-10.7654
▁beso	-10.7657
▁songs	-10.7677
▁lenguas	-10.7677
▁fill	-10.7695
▁drugs	-10.77
▁willing	-10.7709
▁ayudara	-10.7711
time	-10.7716
▁lack	-10.772
tió	-10.7724
pa	-10.7738
▁descubri	-10.7789
▁area	-10.7795
▁knock	-10.7805
▁tight	-10.781
bbed	-10.7812
▁cruzar	-10.7816
▁School	-10.7816
▁Tierra	-10.7816
▁appointment	-10.7816
▁llueva	-10.7816
▁request	-10.7816
▁supermarket	-10.7816
▁supermercado	-10.7816
▁dumb	-10.7816
▁adentro	-10.7816
▁argue	-10.7816
▁distancia	-10.7816
▁tongue	-10.7817
▁hogar	-10.7817
▁obra	-10.7817
▁excited	-10.7818
▁Mamá	-10.7818
▁factory	-10.7819
▁trabajó	-10.7819
▁butter	-10.782
▁oil	-10.7822
▁burned	-10.7822
era	-10.7823
▁distance	-10.7829
▁arriba	-10.7839
▁asistir	-10.7843
▁act	-10.7843
▁llamas	-10.7848
▁jug	-10.7855
▁raise	-10.7865
So	-10.7877
▁muñeca	-10.7882
▁sweet	-10.7883
▁earthquake	-10.7883
▁stone	-10.7885
▁condition	-10.7888
▁vecino	-10.789
▁hablaba	-10.7893
▁traj	-10.7923
▁bajar	-10.7945
▁armas	-10.7959
▁Americans	-10.7963
▁U	-10.7966
▁tastes	-10.7974
▁bomb	-10.8043
▁intend	-10.8054
▁pocos	-10.8054
▁Vin	-10.8055
▁allergi	-10.806
cha	-10.8061
▁despertar	-10.8061
▁enorme	-10.8064
Son	-10.8066
▁attempt	-10.8066
▁temperature	-10.8066
▁esquina	-10.8066
▁fifteen	-10.8066
▁gratis	-10.8066
▁football	-10.8066
▁bathroom	-10.8066
▁gordo	-10.8067
▁jugador	-10.8068
▁Papá	-10.807
▁Mejor	-10.8071
▁levantarse	-10.8072
▁diré	-10.8073
▁jumped	-10.8074
▁hablante	-10.8078
gged	-10.8078
▁contestar	-10.8079
hap	-10.8081
▁fingers	-10.8083
▁lady	-10.8084
▁letters	-10.8093
▁ganado	-10.8097
▁contado	-10.8101
▁Per	-10.8123
▁Podé	-10.8125
▁suitcase	-10.8142
▁losing	-10.8144
▁doce	-10.8153
▁iré	-10.8154
▁regresar	-10.8157
▁noon	-10.8157
▁podés	-10.8162
▁hojas	-10.8168
▁debemos	-10.818
filled	-10.8197
▁calls	-10.8204
ías	-10.8238
ue	-10.8242
man	-10.8242
▁mountains	-10.8259
▁Má	-10.8265
▁lleve	-10.8273
▁canta	-10.8274
Ella	-10.8275
▁lights	-10.8285
▁Cad	-10.8286
▁estaré	-10.8289
▁preparar	-10.8295
▁climb	-10.8299
▁proteger	-10.8309
▁fuma	-10.831
tábamos	-10.8311
▁continue	-10.8315
implemente	-10.8322
▁absoluto	-10.8323
▁ajedrez	-10.8323
▁avergonzado	-10.8323
▁bebida	-10.8323
▁bolso	-10.8323
▁cuello	-10.8323
▁excellent	-10.8323
▁maestro	-10.8323
▁pasatiempo	-10.8323
▁studies	-10.8323
▁moving	-10.8323
▁naked	-10.8323
▁million	-10.8323
▁gentleman	-10.8323
▁naive	-10.8323
▁lazy	-10.8323
▁email	-10.8323
▁Watch	-10.8323
▁preparando	-10.8325
▁Sorry	-10.8325
▁increíble	-10.8325
▁recibido	-10.8325
▁discovered	-10.8326
▁esposo	-10.8326
▁ingenuo	-10.8328
▁Cierr	-10.8329
▁apagar	-10.8339
▁dejé	-10.834
▁loud	-10.8341
enza	-10.8344
▁descansar	-10.8351
▁pinta	-10.8351
▁saberlo	-10.8351
▁informe	-10.8352
▁step	-10.8357
▁urgente	-10.8357
▁permite	-10.8361
▁San	-10.8371
▁complain	-10.8379
▁detalles	-10.8395
▁costumbre	-10.8398
▁molesta	-10.8399
▁caballero	-10.84
▁blanca	-10.84
▁cuidadoso	-10.8404
▁hole	-10.8405
▁conoces	-10.8407
▁fotografía	-10.8408
▁Fi	-10.8411
▁metro	-10.8415
▁Trat	-10.842
▁Pasa	-10.8421
▁Sha	-10.8438
seando	-10.844
▁hearing	-10.8443
▁fondo	-10.8466
▁meal	-10.8468
▁luces	-10.847
▁pretende	-10.8472
▁games	-10.8475
▁visita	-10.8475
▁pieces	-10.8483
▁cute	-10.8492
▁farm	-10.8501
▁partes	-10.8505
▁acaso	-10.8509
▁pleased	-10.8517
ke	-10.8546
prendió	-10.8552
ach	-10.8567
▁obey	-10.8573
▁reach	-10.8575
▁posibilidad	-10.8579
▁valiente	-10.8583
▁comienzo	-10.8586
▁huele	-10.8586
▁levanté	-10.8586
▁pedido	-10.8586
▁proposal	-10.8586
▁resemble	-10.8586
▁segunda	-10.8586
▁sospechoso	-10.8586
▁permission	-10.8586
▁Rome	-10.8586
▁handsome	-10.8586
▁teoría	-10.8586
▁clever	-10.8586
▁awful	-10.8586
▁menú	-10.8586
▁cubierta	-10.8587
▁salary	-10.8587
▁chess	-10.8588
▁anillo	-10.8588
▁preguntarle	-10.859
▁Dejé	-10.8591
▁prevented	-10.8594
▁suya	-10.8595
▁Send	-10.8596
▁suggested	-10.8596
▁climate	-10.8599
nse	-10.8614
▁ayudarle	-10.8619
▁creía	-10.862
▁verduras	-10.8622
▁socks	-10.8622
▁reserva	-10.8624
▁solved	-10.8627
▁mayores	-10.8633
▁fuimos	-10.8634
▁alcanzar	-10.8637
▁trusted	-10.8638
▁profesores	-10.8643
▁drogas	-10.865
▁friendly	-10.8662
▁terremoto	-10.8674
▁atrapado	-10.8676
▁vacía	-10.8676
▁fuerza	-10.8676
▁cousin	-10.8678
▁holiday	-10.8679
▁belong	-10.868
▁skirt	-10.868
ita	-10.8685
▁computadora	-10.8687
▁By	-10.8698
▁llevo	-10.8698
ment	-10.8702
▁runs	-10.8702
▁pond	-10.8706
▁golpe	-10.8712
▁andando	-10.8723
éis	-10.873
▁banda	-10.8734
ck	-10.874
▁naranjas	-10.8751
▁deje	-10.8768
ry	-10.8773
▁vecinos	-10.8775
▁cruz	-10.8785
tuvieron	-10.8786
▁doll	-10.879
▁casados	-10.879
▁levantar	-10.8804
▁culpar	-10.8809
mi	-10.8815
z	-10.8836
Esta	-10.8846
▁sleepy	-10.8848
▁silent	-10.885
▁tenían	-10.8853
▁shall	-10.8856
▁Pronto	-10.8856
▁bottom	-10.8856
▁carretera	-10.8856
▁goodbye	-10.8856
▁nariz	-10.8856
▁población	-10.8856
▁responsible	-10.8856
▁Cualquier	-10.8856
▁examination	-10.8856
▁refrigerator	-10.8856
▁Few	-10.8856
▁sueldo	-10.8856
▁impidió	-10.8856
▁jail	-10.8856
▁empresa	-10.8856
▁pareja	-10.8856
▁orgullosa	-10.8856
▁vistazo	-10.8857
▁confianza	-10.8857
▁profundo	-10.8857
▁equivocada	-10.8857
▁theory	-10.8857
▁cartera	-10.8858
▁upset	-10.8859
▁conferencia	-10.8859
▁wise	-10.8859
▁grass	-10.886
▁describe	-10.8862
ish	-10.8863
▁stealing	-10.8864
▁copia	-10.8872
▁Say	-10.8873
▁Sigue	-10.8877
▁attended	-10.8879
▁limpio	-10.8888
▁montar	-10.8889
▁texto	-10.8891
▁probar	-10.8899
▁querían	-10.8911
▁smells	-10.8912
▁sonar	-10.8918
ándose	-10.8921
▁yes	-10.8927
▁rare	-10.8938
▁Pode	-10.894
▁taste	-10.8944
▁artículo	-10.8946
▁dormitorio	-10.8946
▁conduce	-10.8949
▁objetivo	-10.895
▁ear	-10.8952
▁estudio	-10.8953
▁page	-10.8956
▁cabo	-10.8957
▁plato	-10.8958
▁huevo	-10.8959
tuve	-10.8965
▁poema	-10.8967
▁co	-10.8971
ista	-10.8987
bo	-10.8988
ábamos	-10.9008
▁matters	-10.9011
▁estrellas	-10.9026
▁arrest	-10.9027
▁Des	-10.9035
▁band	-10.9035
▁ears	-10.9039
▁loca	-10.904
▁Trata	-10.906
C	-10.9072
▁difficulty	-10.9094
▁urgent	-10.9097
entras	-10.9103
▁calma	-10.9109
▁visa	-10.9127
▁slight	-10.9128
▁reír	-10.9128
▁match	-10.9128
▁bright	-10.9132
▁neck	-10.9134
▁Internet	-10.9134
▁amount	-10.9134
▁emergency	-10.9134
▁estómago	-10.9134
▁hicimos	-10.9134
▁músico	-10.9134
▁responsable	-10.9134
▁sistema	-10.9134
▁tímido	-10.9134
▁amistad	-10.9134
▁emergencia	-10.9134
▁drove	-10.9134
▁opportunity	-10.9134
▁remedio	-10.9134
▁nurse	-10.9134
▁eventually	-10.9134
▁dying	-10.9134
▁agreement	-10.9135
▁preferido	-10.9135
▁saludable	-10.9137
▁popula	-10.9137
▁happiness	-10.9137
▁gate	-10.9138
▁agradecido	-10.9138
▁abandoned	-10.9139
▁completo	-10.9139
▁olvidé	-10.914
▁trago	-10.9144
▁skiing	-10.9145
▁teaches	-10.9149
▁cantando	-10.9149
▁clearly	-10.9152
▁sonido	-10.9153
▁mail	-10.9159
▁teaching	-10.9161
▁llamaré	-10.9168
▁fortuna	-10.9172
▁quedado	-10.9176
▁dry	-10.9178
▁papas	-10.9181
▁artist	-10.9195
Sabe	-10.9209
omen	-10.9215
▁poem	-10.9228
▁depends	-10.9231
▁rose	-10.9241
▁espere	-10.9241
▁estrella	-10.9243
▁naranja	-10.9243
▁egg	-10.9244
▁mañanas	-10.9257
▁miembros	-10.9258
▁lasted	-10.9262
▁Dud	-10.93
▁vengas	-10.9305
▁verg	-10.9306
▁spends	-10.9313
▁hated	-10.932
▁costs	-10.9326
reció	-10.9335
▁turno	-10.9341
mé	-10.9344
▁listos	-10.9356
ad	-10.9357
das	-10.936
ical	-10.9362
▁Llama	-10.9362
Piensa	-10.937
prendí	-10.9396
▁alarma	-10.9411
▁necesidad	-10.9413
ti	-10.9414
▁airplane	-10.942
▁despedido	-10.942
▁durmió	-10.942
▁energy	-10.942
▁improbable	-10.942
▁mantequilla	-10.942
▁neighborhood	-10.942
▁plenty	-10.942
▁relación	-10.942
▁stories	-10.942
▁Listen	-10.942
▁Three	-10.942
▁hubiese	-10.942
▁inútil	-10.942
▁Hurry	-10.942
▁esperó	-10.942
▁iPad	-10.942
▁cabello	-10.942
▁patience	-10.942
▁market	-10.942
▁castillo	-10.942
▁convencido	-10.942
▁Policía	-10.942
▁convenció	-10.942
▁ground	-10.942
▁above	-10.942
▁musician	-10.942
▁Good	-10.942
▁With	-10.942
▁matrimonio	-10.942
▁castle	-10.9421
▁Fro	-10.9422
▁ejemplo	-10.9422
▁Quédate	-10.9423
▁envió	-10.9423
▁deaf	-10.9424
▁huge	-10.9425
▁definite	-10.9428
red	-10.9429
▁crossed	-10.9431
▁imagine	-10.9433
▁dis	-10.9434
▁sh	-10.9436
▁dieron	-10.9438
▁Eat	-10.944
▁bebió	-10.9443
▁flying	-10.9444
za	-10.9448
▁anyway	-10.9454
▁bell	-10.9461
▁saltó	-10.9463
▁weak	-10.9464
▁Llegu	-10.9474
▁duró	-10.948
▁nor	-10.951
▁eras	-10.9513
▁adopt	-10.952
▁motivo	-10.9526
▁esfuerzo	-10.9536
▁photo	-10.9536
▁viejos	-10.9542
▁detail	-10.9553
▁none	-10.9577
émonos	-10.9581
▁kinds	-10.9618
▁caer	-10.9622
▁neighbors	-10.9642
▁ski	-10.9658
▁hablas	-10.9663
▁regalos	-10.9665
Estaba	-10.9671
▁necesitar	-10.9681
▁apart	-10.9684
bió	-10.9685
▁mover	-10.9698
▁sharp	-10.9712
▁rehus	-10.9714
▁España	-10.9714
▁Spain	-10.9714
▁Tomorrow	-10.9714
▁Volveré	-10.9714
▁falda	-10.9714
▁pantalones	-10.9714
▁puntual	-10.9714
▁system	-10.9714
▁cincuenta	-10.9714
▁esquiar	-10.9714
▁require	-10.9714
▁conversation	-10.9714
▁puzzle	-10.9714
▁subway	-10.9714
▁twelve	-10.9714
safortunadamente	-10.9714
▁pool	-10.9714
▁elevator	-10.9714
▁example	-10.9714
▁pagó	-10.9714
▁requiere	-10.9714
▁sofa	-10.9714
▁easier	-10.9714
▁cantidad	-10.9714
▁Should	-10.9715
▁gritó	-10.9715
▁bench	-10.9715
▁Normalmente	-10.9716
▁manager	-10.9718
▁thirsty	-10.9718
▁asustado	-10.9718
▁Vuelve	-10.9719
▁stronger	-10.9719
▁hill	-10.972
▁article	-10.9726
▁passengers	-10.9727
▁mom	-10.9728
▁ignored	-10.973
▁habido	-10.973
▁attacked	-10.9732
▁invitar	-10.9733
▁significado	-10.9733
▁estuviste	-10.9738
▁llegaron	-10.9738
▁Creía	-10.9742
▁hecha	-10.9744
▁bas	-10.9748
▁millas	-10.9749
▁Day	-10.9751
va	-10.9761
oney	-10.9764
▁Sí	-10.9785
▁diferentes	-10.9791
▁Li	-10.9809
▁Of	-10.9815
▁cierta	-10.983
▁intention	-10.9831
▁servicio	-10.9835
▁estúpida	-10.9836
▁estadounidense	-10.984
▁venta	-10.9841
▁sport	-10.9841
▁asegurar	-10.9849
▁novelas	-10.9859
▁oranges	-10.9878
▁lee	-10.9881
ón	-10.9893
▁admiti	-10.9894
▁bite	-10.9894
▁debí	-10.9901
▁comprender	-10.9901
▁sta	-10.9912
▁buying	-10.9914
▁escritor	-10.9935
▁program	-10.994
▁uso	-10.994
los	-10.9944
▁cab	-10.9956
▁harías	-10.9957
Realmente	-10.9967
▁fe	-10.9968
▁Roma	-10.9968
▁results	-10.9982
▁Coge	-10.9984
▁persuade	-11.0002
▁suffer	-11.0005
ook	-11.0006
▁trav	-11.0006
ncluso	-11.0008
▁sandwich	-11.001
▁hacemos	-11.0013
virtió	-11.0016
▁energía	-11.0017
▁lloró	-11.0017
▁paquete	-11.0017
▁rechazó	-11.0017
▁relationship	-11.0017
▁área	-11.0017
▁equipaje	-11.0017
▁violencia	-11.0017
▁kidding	-11.0017
▁committed	-11.0017
▁Parecía	-11.0017
▁prohibido	-11.0017
▁pollo	-11.0017
▁illness	-11.0017
▁enfadada	-11.0018
▁héroe	-11.0018
▁fifty	-11.0018
▁muchacha	-11.0018
▁louder	-11.0019
▁potatoes	-11.0019
▁tallest	-11.0019
▁granja	-11.0019
▁perfectamente	-11.002
▁kick	-11.0021
▁forest	-11.0023
▁viva	-11.0024
▁round	-11.0024
▁tranquilo	-11.0026
▁main	-11.0027
▁smaller	-11.0027
▁empezado	-11.0028
▁survived	-11.0028
▁escuchado	-11.0029
hink	-11.0031
ina	-11.0032
▁perfectly	-11.0033
▁querer	-11.0037
▁imagin	-11.0038
▁Vive	-11.0041
▁artista	-11.0042
▁guests	-11.0047
▁uses	-11.0049
▁pre	-11.0051
▁Quiere	-11.0058
▁g	-11.0076
iera	-11.0082
▁nose	-11.0083
▁malas	-11.0084
▁dejaré	-11.0093
▁prepare	-11.0093
▁imaginar	-11.0099
▁director	-11.0107
▁jugo	-11.0118
ccord	-11.0123
▁prices	-11.0129
▁abre	-11.0133
▁caballos	-11.0135
▁Sundays	-11.0139
▁abierto	-11.0143
▁afortunado	-11.0145
▁contract	-11.0145
▁hombro	-11.0147
▁members	-11.0147
▁riesgo	-11.0147
vo	-11.0149
▁luce	-11.0153
▁escalera	-11.0153
▁invitado	-11.0153
▁autos	-11.016
▁olvidar	-11.018
▁acordar	-11.0183
j	-11.0184
▁hechos	-11.0191
▁ma	-11.0193
▁estadounidenses	-11.0197
▁tarda	-11.0214
▁hable	-11.0214
▁quedara	-11.0223
ion	-11.0229
▁tickets	-11.0241
01	-11.025
▁quitar	-11.025
▁gasta	-11.025
▁montañas	-11.0252
▁Visit	-11.0262
Tu	-11.0267
▁experiment	-11.0272
▁resultados	-11.0282
▁expert	-11.0283
▁woods	-11.0298
▁herir	-11.0298
▁noches	-11.0321
▁slow	-11.0322
▁seguido	-11.0326
▁ocurrir	-11.0328
▁Lincoln	-11.0329
▁October	-11.0329
▁Washington	-11.0329
▁brown	-11.0329
▁calcetines	-11.0329
▁curious	-11.0329
▁maravilloso	-11.0329
▁nosotras	-11.0329
▁smiling	-11.0329
▁traducir	-11.0329
▁website	-11.0329
▁garage	-11.0329
▁eleven	-11.0329
▁elección	-11.0329
▁conoció	-11.0329
▁conversación	-11.0329
▁weird	-11.0329
▁colina	-11.0329
▁couch	-11.0329
▁curso	-11.0329
▁tough	-11.033
▁poniendo	-11.033
▁querido	-11.033
▁saliera	-11.033
▁credit	-11.033
▁saliendo	-11.0331
▁monte	-11.0331
▁verdadera	-11.0331
▁scolded	-11.0331
▁gracioso	-11.0332
▁preocupada	-11.0332
▁regaló	-11.0332
▁betrayed	-11.0332
▁shelf	-11.0333
▁ciento	-11.0333
▁cuánta	-11.0333
▁trabajadores	-11.0335
▁levantarme	-11.0335
▁supone	-11.0335
▁robar	-11.0336
▁Gi	-11.0336
▁local	-11.0337
▁trae	-11.0338
▁ayudarnos	-11.0339
▁altura	-11.0339
▁supuesto	-11.0343
▁complained	-11.0344
▁nuevamente	-11.0347
▁tratado	-11.0351
Necesita	-11.0352
▁Russian	-11.0353
▁Won	-11.0357
▁pensado	-11.0358
▁adora	-11.0362
tar	-11.0363
▁leyó	-11.0363
pe	-11.0365
▁writer	-11.0377
ear	-11.0377
▁respuestas	-11.0379
▁prepar	-11.0381
▁within	-11.0405
▁ascensor	-11.0406
por	-11.0408
▁starting	-11.0414
▁coma	-11.0421
▁extranjeros	-11.0427
ive	-11.0429
▁decía	-11.0443
▁using	-11.0444
ten	-11.0463
▁deber	-11.0467
▁billete	-11.0468
▁viniera	-11.0471
▁orange	-11.0475
▁cercano	-11.048
▁material	-11.0488
▁mess	-11.0509
it	-11.0515
▁Tuvi	-11.0522
▁shoulder	-11.053
▁dará	-11.0554
▁termina	-11.0555
▁hurts	-11.0562
▁pesca	-11.0569
las	-11.0576
▁ap	-11.0577
▁modern	-11.0586
▁llevan	-11.0607
▁plu	-11.0614
▁Aquel	-11.0616
▁press	-11.0624
▁suggest	-11.0626
▁complete	-11.0632
▁cross	-11.0634
▁refuse	-11.0638
▁push	-11.0639
▁mention	-11.0642
ones	-11.0642
▁bald	-11.0642
▁licencia	-11.0644
▁quick	-11.0646
▁advantage	-11.0652
▁agujero	-11.0652
▁anciana	-11.0652
▁capitán	-11.0652
▁departamento	-11.0652
▁exchange	-11.0652
▁illegal	-11.0652
▁plata	-11.0652
▁possibility	-11.0652
▁pudimos	-11.0652
▁suéter	-11.0652
▁podido	-11.0652
▁enfermera	-11.0652
▁encontraste	-11.0652
▁breve	-11.0652
▁lentamente	-11.0652
▁toalla	-11.0652
▁podamos	-11.0652
▁salida	-11.0652
▁author	-11.0653
▁embarrassed	-11.0653
▁Escuché	-11.0653
▁tenéis	-11.0654
▁nearest	-11.0656
▁sort	-11.0656
▁third	-11.0658
▁due	-11.0658
▁graduated	-11.0658
▁gotten	-11.0659
▁ability	-11.0659
▁stars	-11.066
▁Dale	-11.066
▁repaired	-11.0663
▁pulled	-11.0664
▁Bueno	-11.0665
▁esconder	-11.0665
▁iguales	-11.0666
▁board	-11.0666
▁dijera	-11.0667
▁últimamente	-11.0675
▁mira	-11.0676
▁borrowed	-11.068
▁apologized	-11.0683
▁sepas	-11.0698
▁renunciar	-11.0702
▁sore	-11.0706
▁solos	-11.0711
▁iría	-11.0725
▁vemos	-11.073
▁schedule	-11.0732
▁quedamos	-11.0732
▁badly	-11.0733
▁handle	-11.0737
ho	-11.0739
▁besar	-11.0744
▁verle	-11.0758
cía	-11.0759
▁Mom	-11.0772
▁toques	-11.0778
,"	-11.0779
▁Hazl	-11.0783
▁salga	-11.0794
ida	-11.0797
▁rosa	-11.0799
▁boleto	-11.0801
▁vendría	-11.0801
▁disease	-11.0802
ni	-11.0802
▁drug	-11.0809
▁cuida	-11.0827
▁compra	-11.083
Vist	-11.0832
▁piensan	-11.0844
▁marca	-11.0848
▁holidays	-11.0868
un	-11.0869
ará	-11.0875
▁pequeños	-11.0889
▁abandonar	-11.0891
▁hagan	-11.0901
▁divide	-11.0925
▁deportes	-11.0928
▁plant	-11.0932
though	-11.0936
▁changes	-11.0941
▁Manten	-11.0942
▁Trabaja	-11.0945
▁mentir	-11.0965
▁llevas	-11.0966
Sabé	-11.0967
Pensaba	-11.097
▁pelear	-11.0978
▁pull	-11.0978
▁engine	-11.0978
▁ilegal	-11.0978
▁débil	-11.0979
▁rode	-11.0983
▁Brasil	-11.0985
▁Disculpe	-11.0985
▁Smoking	-11.0985
▁Tráeme	-11.0985
▁aceptó	-11.0985
▁apartamento	-11.0985
▁childhood	-11.0985
▁cierra	-11.0985
▁enseguida	-11.0985
▁estupendo	-11.0985
▁greet	-11.0985
▁otoño	-11.0985
▁pañuelo	-11.0985
▁razonable	-11.0985
▁respeto	-11.0985
▁retraso	-11.0985
▁supper	-11.0985
▁vacío	-11.0985
▁value	-11.0985
▁zoológico	-11.0985
▁curiosidad	-11.0985
▁marriage	-11.0985
▁creyó	-11.0985
▁center	-11.0985
▁dislike	-11.0985
▁captain	-11.0985
▁Close	-11.0985
▁interés	-11.0985
▁regresó	-11.0985
▁armario	-11.0985
▁winning	-11.0985
▁foolish	-11.0986
▁puesta	-11.0986
▁apagó	-11.0986
▁Llámame	-11.0986
▁education	-11.0986
▁Cats	-11.0986
▁ocultando	-11.0986
▁trece	-11.0987
▁acusado	-11.0987
▁consigo	-11.0988
▁someday	-11.0989
▁bebiendo	-11.0989
▁subir	-11.0989
▁tocando	-11.0991
▁useless	-11.0991
▁llegaste	-11.0992
▁contrato	-11.0992
▁celoso	-11.0993
hí	-11.0994
▁bang	-11.0996
▁warned	-11.0996
▁conversar	-11.1003
▁intenta	-11.1004
▁li	-11.1005
ito	-11.1008
▁dirá	-11.1009
▁esperado	-11.1009
▁pasajeros	-11.1013
▁progress	-11.1013
▁answers	-11.1015
▁vernos	-11.1017
▁quedaron	-11.1017
▁cambia	-11.1026
▁enemigos	-11.1031
▁talento	-11.1032
▁skin	-11.1036
▁Intenta	-11.1038
▁irnos	-11.104
▁alimentar	-11.1055
▁Italian	-11.1057
▁salvar	-11.1062
▁fantasmas	-11.1068
▁odian	-11.1086
▁aquellos	-11.1105
▁paying	-11.1108
▁enfadar	-11.1109
▁haz	-11.111
ró	-11.1116
▁disculpas	-11.1128
▁comen	-11.1129
hings	-11.1138
ese	-11.114
▁quedes	-11.1143
▁amigas	-11.1147
Recuerda	-11.115
▁nuevas	-11.1154
▁letra	-11.1164
▁vende	-11.1172
▁Hey	-11.1197
▁imp	-11.1216
N	-11.1236
▁citizen	-11.1244
▁vuelvas	-11.1263
▁tomo	-11.1283
▁Sh	-11.1288
▁metal	-11.1292
▁pro	-11.1295
arse	-11.13
▁hop	-11.1315
▁escribí	-11.1318
▁cre	-11.1324
▁polite	-11.1325
▁11	-11.1329
▁tail	-11.1329
▁Brazil	-11.133
▁Mexico	-11.133
▁acercó	-11.133
▁available	-11.133
▁cuestión	-11.133
▁escenario	-11.133
▁grateful	-11.133
▁junio	-11.133
▁mirror	-11.133
▁octubre	-11.133
▁unhappy	-11.133
▁éstos	-11.133
▁collar	-11.133
▁robbed	-11.133
▁soltero	-11.133
▁towel	-11.133
▁velocidad	-11.133
▁millones	-11.133
▁private	-11.133
▁sencillo	-11.133
▁evil	-11.133
▁condiciones	-11.133
▁amazing	-11.133
▁violence	-11.133
▁queréis	-11.133
▁éste	-11.133
▁aprendido	-11.133
▁trapped	-11.133
▁nuts	-11.133
▁ataque	-11.1331
▁agotado	-11.1332
▁espejo	-11.1332
▁birth	-11.1333
▁desearía	-11.1333
▁colectivo	-11.1333
▁pale	-11.1334
▁sano	-11.1334
▁volviendo	-11.1335
▁intentarlo	-11.1335
▁ciencia	-11.1335
▁carrie	-11.1336
▁greatest	-11.1336
▁pesado	-11.1336
▁abandonó	-11.1337
▁venía	-11.1338
▁piel	-11.134
▁original	-11.1342
▁pagado	-11.1342
▁toward	-11.1348
▁appeared	-11.1349
▁deserted	-11.1352
Recibí	-11.1353
▁Ma	-11.1359
▁succeeded	-11.1359
▁Venga	-11.1364
▁impuestos	-11.1365
ací	-11.1365
▁depressed	-11.137
▁detuvo	-11.1371
▁larger	-11.1374
▁queja	-11.1375
▁nubes	-11.1377
▁clouds	-11.1384
▁Olvidé	-11.1388
▁conocemos	-11.1388
té	-11.1389
▁usando	-11.1394
▁bello	-11.1402
▁escalar	-11.1406
tally	-11.1406
▁iremos	-11.1411
▁marcha	-11.1413
zo	-11.1417
▁nadando	-11.1426
▁ghosts	-11.1428
becoming	-11.1437
▁acabar	-11.1441
▁teachers	-11.1459
pi	-11.146
ante	-11.1462
▁sospecha	-11.1466
▁Queda	-11.1483
▁presentes	-11.1496
▁lindo	-11.1501
pusieron	-11.1506
▁cigarette	-11.1509
▁reparar	-11.1509
▁cae	-11.1511
▁primo	-11.1512
▁horses	-11.152
iz	-11.1529
etesto	-11.1534
ran	-11.1535
▁Dej	-11.1536
▁wet	-11.1546
▁mando	-11.1564
▁contest	-11.1582
▁consejos	-11.1585
▁robo	-11.1608
▁goal	-11.1608
▁promet	-11.1627
law	-11.1633
¿	-11.1634
▁tend	-11.1642
▁chose	-11.1647
▁pareces	-11.1647
!"	-11.1649
▁promesas	-11.1659
▁repair	-11.1663
▁pe	-11.1665
▁señor	-11.1669
▁escondi	-11.167
▁devolver	-11.1673
▁disturb	-11.1674
▁repeat	-11.1674
▁shock	-11.1675
▁search	-11.1676
▁build	-11.1676
▁automóvil	-11.168
▁dificultad	-11.1681
▁sudden	-11.1681
▁thin	-11.1686
▁stomach	-11.1687
▁Facebook	-11.1687
▁Yokohama	-11.1687
▁alcalde	-11.1687
▁arguing	-11.1687
▁beauty	-11.1687
▁crédito	-11.1687
▁desnudo	-11.1687
▁fortune	-11.1687
▁lecture	-11.1687
▁llamo	-11.1687
▁negra	-11.1687
▁ocurrido	-11.1687
▁ridículo	-11.1687
▁suicidó	-11.1687
▁wild	-11.1687
▁baile	-11.1687
▁bucket	-11.1687
▁impresión	-11.1687
▁pleasant	-11.1687
▁violín	-11.1687
▁huyó	-11.1687
▁polvo	-11.1687
▁despise	-11.1687
▁buried	-11.1687
▁failure	-11.1687
▁aprendiste	-11.1687
▁changing	-11.1687
▁belleza	-11.1687
▁Deje	-11.1687
▁libertad	-11.1687
▁confía	-11.1687
▁moda	-11.1688
▁Pregúntale	-11.1688
▁Antes	-11.1688
▁encontramos	-11.1688
▁Intenté	-11.1689
▁friendship	-11.1689
▁disappeared	-11.1689
▁guapo	-11.169
▁sentarme	-11.1691
▁fallen	-11.1692
▁cap	-11.1692
▁practice	-11.1695
▁invented	-11.1695
▁ausente	-11.1696
▁hacerse	-11.1697
▁divorced	-11.17
▁cual	-11.17
▁emocionado	-11.1701
▁intento	-11.1703
Este	-11.1706
▁treated	-11.1708
▁beside	-11.1709
ried	-11.1712
▁ponerse	-11.1716
▁miel	-11.1726
ied	-11.1726
endo	-11.1731
▁Ésa	-11.174
▁traveling	-11.1743
▁verla	-11.1744
▁express	-11.175
▁cleaning	-11.1753
▁cooked	-11.1755
je	-11.1757
▁workers	-11.1759
▁snowing	-11.1759
▁burl	-11.1773
▁apuesto	-11.1783
▁descubrir	-11.1796
▁canadienses	-11.1801
▁stamps	-11.1802
▁productos	-11.1828
▁Mo	-11.1836
,000	-11.1841
▁interest	-11.1848
▁gives	-11.185
▁houses	-11.1852
▁novels	-11.1855
▁actuar	-11.1856
▁musical	-11.1856
izo	-11.186
▁criminal	-11.1869
▁equal	-11.1869
▁maravillosa	-11.187
▁dé	-11.187
▁hábito	-11.1875
▁antiguo	-11.1876
▁saving	-11.1878
▁soldier	-11.1881
▁soldado	-11.1883
▁charla	-11.1888
▁herida	-11.1891
▁detener	-11.1899
▁ayudará	-11.1904
▁lies	-11.1907
▁details	-11.1908
▁photos	-11.1908
▁Hable	-11.1913
▁Lleg	-11.1922
▁llen	-11.1928
zó	-11.1935
ond	-11.1948
▁ta	-11.1954
rás	-11.1959
▁w	-11.1969
▁predict	-11.1978
▁arms	-11.1987
▁accidentes	-11.2
▁quedan	-11.2
entí	-11.2008
Debería	-11.2009
▁trabajaba	-11.2016
ud	-11.2018
Teng	-11.2021
▁form	-11.2028
▁Hi	-11.204
▁concern	-11.2045
▁autor	-11.2047
▁hire	-11.205
▁suspicious	-11.2051
▁ignore	-11.2052
ithout	-11.2056
▁electric	-11.2057
▁Water	-11.2058
▁Picasso	-11.2058
▁alfombra	-11.2058
▁cinturón	-11.2058
▁delicioso	-11.2058
▁despertó	-11.2058
▁efectivo	-11.2058
▁gerente	-11.2058
▁laptop	-11.2058
▁lástima	-11.2058
▁provide	-11.2058
▁salvó	-11.2058
▁service	-11.2058
▁sugirió	-11.2058
▁ruso	-11.2058
▁basketball	-11.2058
▁complicated	-11.2058
▁battle	-11.2058
▁vinieron	-11.2058
▁batalla	-11.2058
▁sensible	-11.2058
▁rush	-11.2058
▁invitation	-11.2058
▁everywhere	-11.2058
▁mintió	-11.2058
▁rota	-11.2058
▁invitación	-11.2058
▁exhausted	-11.2058
▁México	-11.2058
▁atrasado	-11.2059
▁salario	-11.2059
▁tocó	-11.2059
▁baffled	-11.2059
▁tendría	-11.2061
▁decepcionado	-11.2061
▁impressed	-11.2061
▁tiró	-11.2061
▁molesto	-11.2062
▁capaces	-11.2062
▁Park	-11.2063
▁entendido	-11.2066
▁ruined	-11.2068
▁Siga	-11.2068
▁considerado	-11.2069
▁cometió	-11.2069
▁intentado	-11.207
▁Asia	-11.2071
▁gritar	-11.2071
▁pushed	-11.2072
▁cercana	-11.2072
▁starts	-11.2076
▁votar	-11.2077
▁seguros	-11.2077
▁imagen	-11.2077
▁visitado	-11.2078
▁ordenó	-11.2085
qui	-11.2089
▁apunt	-11.2102
▁Ador	-11.2107
▁meter	-11.2108
▁signed	-11.212
▁text	-11.2126
▁despedir	-11.2141
▁buses	-11.2163
▁atrap	-11.2166
▁acostumbrar	-11.2176
▁argument	-11.2179
▁arena	-11.2181
▁largas	-11.2184
aciones	-11.2191
▁Asum	-11.2199
▁Dad	-11.221
▁tareas	-11.221
▁compañeros	-11.2211
▁quejas	-11.2216
▁iron	-11.2218
▁aspecto	-11.2256
teniendo	-11.226
▁extranjera	-11.2263
▁effort	-11.2263
▁chiste	-11.2265
▁names	-11.2283
▁echa	-11.2283
▁plantas	-11.229
▁social	-11.235
▁add	-11.2353
▁guardar	-11.2359
▁sabían	-11.2387
▁amar	-11.2402
▁ibas	-11.2407
▁Díga	-11.2416
▁chat	-11.242
▁alérgic	-11.2424
proximadamente	-11.2424
▁dentist	-11.2427
▁lift	-11.2429
▁crash	-11.2429
▁gain	-11.243
▁desert	-11.243
▁steal	-11.2431
▁supo	-11.2432
▁sand	-11.2436
▁hero	-11.244
▁recoger	-11.2441
▁Hawaii	-11.2442
▁World	-11.2442
▁audience	-11.2442
▁caluroso	-11.2442
▁despierta	-11.2442
▁economía	-11.2442
▁enemies	-11.2442
▁genio	-11.2442
▁genius	-11.2442
▁handkerchief	-11.2442
▁llamé	-11.2442
▁mochila	-11.2442
▁razones	-11.2442
▁íbamos	-11.2442
▁excusa	-11.2442
▁insane	-11.2442
▁itself	-11.2442
▁opina	-11.2442
▁professor	-11.2442
▁ugly	-11.2442
▁solicitud	-11.2442
▁coward	-11.2442
▁cima	-11.2442
▁pintó	-11.2442
▁master	-11.2442
▁diary	-11.2443
▁importancia	-11.2443
▁kilómetros	-11.2443
▁mantiene	-11.2443
▁sonreír	-11.2444
▁vieron	-11.2444
▁puse	-11.2445
▁frightened	-11.2445
▁adiós	-11.2445
▁election	-11.2445
▁Find	-11.2445
lew	-11.2446
▁punished	-11.2447
▁cheated	-11.2448
uerra	-11.2451
▁sentada	-11.2451
▁spite	-11.2453
▁admitir	-11.2454
▁capable	-11.2455
▁dentista	-11.2458
▁import	-11.2458
▁deeply	-11.2459
▁hello	-11.246
▁acting	-11.246
▁cantó	-11.2462
▁diste	-11.2465
Yo	-11.2468
▁Acaba	-11.247
▁drives	-11.2475
▁llegaría	-11.2476
▁dejaría	-11.2483
▁expresar	-11.2484
▁kissing	-11.2485
▁classes	-11.249
▁compre	-11.2491
▁Vete	-11.2494
▁fines	-11.2503
▁voted	-11.2506
▁teme	-11.2509
▁vayamos	-11.2518
▁alumnos	-11.2523
▁quedando	-11.253
▁wondering	-11.2549
▁usado	-11.2557
▁Whi	-11.2558
▁visiting	-11.2558
illa	-11.2561
▁leader	-11.2561
▁K	-11.2561
king	-11.2563
▁army	-11.2564
▁convertir	-11.2567
▁pidie	-11.2569
▁vienes	-11.2572
ndré	-11.2572
▁acuerdas	-11.258
▁Perdón	-11.2614
▁Escucha	-11.2615
▁Pase	-11.2626
▁apariencia	-11.2654
▁impaciente	-11.2654
▁field	-11.2656
▁hambriento	-11.2661
▁cerdo	-11.2661
▁sp	-11.2665
▁leí	-11.2665
▁miembro	-11.2665
▁regla	-11.2667
tir	-11.2669
▁empleado	-11.2673
▁gast	-11.2676
▁esfuerzos	-11.2681
▁niñas	-11.2701
ice	-11.2716
▁carga	-11.2738
▁dulces	-11.2746
▁vase	-11.2761
O	-11.2763
Les	-11.2767
adas	-11.2768
▁saltar	-11.2769
▁talent	-11.2771
ponía	-11.2791
▁produce	-11.2792
▁firmar	-11.2808
pongo	-11.2811
▁mistaken	-11.282
▁advance	-11.2827
▁improve	-11.2827
▁trabajado	-11.2827
▁wound	-11.283
▁receive	-11.2835
ng	-11.2835
▁sándwich	-11.2836
▁flu	-11.2836
▁nevar	-11.284
▁scene	-11.2842
▁First	-11.2842
▁June	-11.2842
▁accompan	-11.2842
▁baloncesto	-11.2842
▁compromiso	-11.2842
▁current	-11.2842
▁desierto	-11.2842
▁desperté	-11.2842
▁detective	-11.2842
▁economy	-11.2842
▁grosero	-11.2842
▁móvil	-11.2842
▁pepper	-11.2842
▁piscina	-11.2842
▁ridiculous	-11.2842
▁seguida	-11.2842
▁tránsito	-11.2842
▁conduciendo	-11.2842
▁escena	-11.2842
▁notebook	-11.2842
▁okay	-11.2842
▁mercado	-11.2842
▁juez	-11.2842
▁formulario	-11.2842
▁reuniones	-11.2842
▁bound	-11.2842
▁campana	-11.2842
▁gorda	-11.2842
▁espero	-11.2842
▁anger	-11.2842
▁violin	-11.2842
▁coser	-11.2842
▁fecha	-11.2842
▁peel	-11.2843
▁villa	-11.2843
▁rieron	-11.2843
▁definitivamente	-11.2843
▁Dijo	-11.2843
▁celular	-11.2843
▁tercer	-11.2844
▁claramente	-11.2844
▁exciting	-11.2844
▁arrestado	-11.2844
▁outfit	-11.2845
▁kindness	-11.2845
▁lion	-11.2846
▁noisy	-11.2846
▁elected	-11.2847
▁fracaso	-11.2847
▁aumento	-11.2847
▁concentrate	-11.2847
▁scientist	-11.2848
▁candy	-11.285
▁successful	-11.285
▁cancel	-11.285
▁pi	-11.2853
▁mathematics	-11.2853
▁Llega	-11.2853
▁cuyo	-11.2854
▁pill	-11.2855
▁gained	-11.2855
▁vago	-11.2857
▁levantado	-11.2857
▁confundido	-11.2858
▁vain	-11.2861
up	-11.2863
▁persuaded	-11.2863
▁obedecer	-11.2867
ces	-11.2867
▁trataba	-11.2868
▁ringing	-11.2869
▁encendió	-11.2871
▁tendré	-11.2876
▁falling	-11.2877
▁diera	-11.2879
▁muertos	-11.2891
▁venden	-11.2897
▁bala	-11.2902
tor	-11.2906
▁cansados	-11.2912
▁contain	-11.2921
▁trenes	-11.2936
tado	-11.2945
▁hopes	-11.295
▁continuar	-11.297
▁mismos	-11.2978
▁orders	-11.2988
▁mejorar	-11.3014
▁Suel	-11.3014
Escribe	-11.3023
um	-11.3025
▁document	-11.3031
ine	-11.3047
▁mu	-11.3057
▁tap	-11.307
▁medida	-11.3071
▁francesa	-11.3075
▁cheek	-11.3075
▁brazos	-11.3076
▁Time	-11.3078
op	-11.3078
▁member	-11.3082
▁force	-11.3084
▁presentar	-11.3097
▁suceder	-11.3097
▁quede	-11.3097
▁poems	-11.3099
▁disculpa	-11.3103
▁warn	-11.3104
▁indica	-11.3111
▁fotografías	-11.3121
aking	-11.3134
▁formas	-11.3168
▁dormí	-11.3187
▁teníamos	-11.319
▁dirigi	-11.3204
▁model	-11.3206
looking	-11.321
Todo	-11.321
▁cell	-11.3211
▁sirve	-11.3216
che	-11.3219
▁tied	-11.3224
▁interrupt	-11.3234
▁jump	-11.3235
▁parecer	-11.3239
▁survive	-11.3244
▁olvida	-11.3245
▁prevent	-11.3246
▁gather	-11.3248
ation	-11.3254
▁grab	-11.3258
▁apoyo	-11.3259
▁basket	-11.3259
▁cierre	-11.3259
▁confío	-11.3259
▁envelope	-11.3259
▁garganta	-11.3259
▁grapes	-11.3259
▁kilometers	-11.3259
▁quizá	-11.3259
▁silence	-11.3259
▁tamaño	-11.3259
▁throat	-11.3259
▁anxious	-11.3259
▁ríe	-11.3259
▁viniste	-11.3259
▁colgó	-11.3259
▁acusó	-11.3259
▁calvo	-11.3259
▁actress	-11.3259
▁enojada	-11.3259
▁naturaleza	-11.3259
▁trato	-11.3259
▁amarillo	-11.3259
▁acostumbrada	-11.3259
▁océano	-11.326
▁sencilla	-11.326
▁suggestion	-11.326
▁opera	-11.326
▁cubierto	-11.326
▁fought	-11.326
▁volando	-11.326
▁Alice	-11.326
▁Entiendo	-11.3261
▁forgetful	-11.3261
▁seriamente	-11.3261
▁quejando	-11.3261
▁annoying	-11.3262
▁harta	-11.3263
▁gira	-11.3264
▁notas	-11.3264
▁peleando	-11.3265
▁spilled	-11.3266
rme	-11.3268
▁escondido	-11.3269
▁Vale	-11.3269
▁juzgar	-11.327
▁inclinó	-11.3272
▁Africa	-11.3272
▁cocinando	-11.3272
▁Entonces	-11.3275
▁llamaste	-11.3275
▁casarte	-11.3279
▁lava	-11.3279
▁staring	-11.3287
ated	-11.3289
▁growing	-11.3291
▁murdered	-11.3295
▁inteligentes	-11.3295
▁regular	-11.3296
▁dime	-11.3296
▁oírte	-11.3299
▁llegamos	-11.3303
ling	-11.3304
▁funcionar	-11.3305
▁comprarlo	-11.3309
▁planeta	-11.3311
ui	-11.3312
▁lower	-11.3312
▁piloto	-11.3315
▁estarás	-11.3316
▁ayudaría	-11.3317
▁inform	-11.3324
▁perfecta	-11.3328
▁llamaba	-11.3335
▁compartir	-11.3344
▁cleaned	-11.3344
▁Che	-11.3352
▁wins	-11.3355
▁visité	-11.336
▁perdonar	-11.336
▁walks	-11.336
ico	-11.3366
probó	-11.3367
▁resist	-11.3382
▁breathe	-11.3385
▁costa	-11.3395
▁Entra	-11.3401
▁cerrados	-11.3425
▁daba	-11.3437
▁inter	-11.3459
▁accidents	-11.3461
▁total	-11.3463
▁salad	-11.3464
▁remembered	-11.3497
▁comas	-11.3498
▁alternativa	-11.3503
▁fila	-11.3504
▁corte	-11.351
▁ciudadano	-11.3513
▁antigua	-11.3513
▁científico	-11.3514
▁compañero	-11.3517
▁hoja	-11.3517
▁regard	-11.3518
▁plants	-11.352
▁nombres	-11.3528
▁olvide	-11.3532
▁poemas	-11.3536
ous	-11.3538
▁hall	-11.3541
▁sleeps	-11.3555
▁pat	-11.3566
▁experto	-11.3568
▁viaja	-11.3569
▁action	-11.3574
M	-11.3574
▁strangers	-11.3589
ext	-11.3593
▁pasto	-11.3606
▁computers	-11.3611
▁J	-11.363
capaz	-11.3644
▁muere	-11.3647
▁vol	-11.3659
▁incident	-11.3666
ized	-11.3667
▁sentar	-11.3671
▁señal	-11.3672
▁manage	-11.3676
▁pressure	-11.3677
▁divorce	-11.3678
▁bat	-11.3684
▁recogi	-11.3686
▁nivel	-11.3686
▁pesa	-11.3687
▁witness	-11.3687
▁actu	-11.3688
▁Asegúr	-11.3694
▁Suddenly	-11.3694
▁achieve	-11.3694
▁cajón	-11.3694
▁dessert	-11.3694
▁efecto	-11.3694
▁embargo	-11.3694
▁evidence	-11.3694
▁flag	-11.3694
▁helicopter	-11.3694
▁helicóptero	-11.3694
▁hierro	-11.3694
▁inocencia	-11.3694
▁screen	-11.3694
▁strength	-11.3694
▁thick	-11.3694
▁vosotras	-11.3694
▁cuarenta	-11.3694
▁nevando	-11.3694
▁Empezó	-11.3694
▁bullet	-11.3694
▁crisis	-11.3694
▁perdón	-11.3694
▁emocionante	-11.3694
▁average	-11.3694
▁instituto	-11.3694
▁occurred	-11.3694
▁percent	-11.3694
▁switch	-11.3694
▁ratón	-11.3694
▁fijamente	-11.3694
▁Check	-11.3694
▁Learn	-11.3694
▁brillante	-11.3694
▁patio	-11.3694
▁perdiendo	-11.3694
▁bandera	-11.3694
▁complicado	-11.3694
▁dust	-11.3694
▁nap	-11.3694
▁deshacer	-11.3694
▁conference	-11.3695
▁Ponga	-11.3695
▁elecciones	-11.3695
▁electrónico	-11.3695
▁command	-11.3696
▁major	-11.3696
▁hunting	-11.3696
▁pesada	-11.3696
▁viera	-11.3696
▁adelantado	-11.3697
▁adorable	-11.3697
▁olor	-11.3697
▁strict	-11.3698
▁reply	-11.3698
▁muchísimo	-11.3699
▁soporto	-11.3699
▁órdenes	-11.3699
▁removed	-11.3699
▁recuerdas	-11.37
▁pluma	-11.3701
▁trate	-11.3701
▁Veamos	-11.3702
▁pants	-11.3703
▁llamando	-11.3709
▁concerned	-11.371
▁azules	-11.3713
llón	-11.3716
▁llamarme	-11.3717
▁miraba	-11.3719
▁raw	-11.3719
▁león	-11.3734
▁postre	-11.3734
▁closer	-11.3736
▁Trabajo	-11.3736
▁alma	-11.3742
▁utilizar	-11.3745
ete	-11.3746
▁vienen	-11.3746
▁tomará	-11.3747
▁lento	-11.3752
dicó	-11.3754
▁fork	-11.3755
▁legal	-11.3757
▁bebido	-11.3759
▁norte	-11.3764
▁danced	-11.3766
▁Rec	-11.3768
▁experimento	-11.3771
▁touched	-11.3775
▁watches	-11.3781
▁quedaba	-11.3793
▁pasamos	-11.3799
▁adapt	-11.3803
▁ciudades	-11.3803
▁And	-11.3811
ncia	-11.3819
▁twins	-11.3835
gue	-11.3839
ica	-11.3845
▁lately	-11.3848
▁Sea	-11.3853
ados	-11.3854
▁appearance	-11.3855
▁insult	-11.3855
▁controlar	-11.3864
▁disfruta	-11.3864
ller	-11.3866
▁earns	-11.3867
aremos	-11.3875
▁closet	-11.3886
▁Comí	-11.389
▁creas	-11.3893
ventó	-11.3897
▁understands	-11.3904
▁Compare	-11.3915
▁primos	-11.3916
hi	-11.3917
pt	-11.3918
▁Plane	-11.392
▁ocupa	-11.3946
▁ruin	-11.395
cient	-11.3953
▁pet	-11.3956
▁bienvenido	-11.3958
▁asesinado	-11.3958
▁planet	-11.396
▁testigo	-11.396
▁pierde	-11.396
ame	-11.3963
▁direction	-11.3965
▁juguete	-11.3968
▁cerrado	-11.3972
▁shoe	-11.3973
▁contratar	-11.3975
▁shoot	-11.3977
▁cousins	-11.399
▁prest	-11.3998
arme	-11.4008
▁compare	-11.4011
sh	-11.4016
ales	-11.4016
▁com	-11.403
▁earn	-11.4032
▁iban	-11.4033
▁promises	-11.4033
▁directo	-11.4039
▁suma	-11.4041
▁hacerle	-11.4051
▁creen	-11.4055
▁pasan	-11.4062
▁producto	-11.4079
▁h	-11.4083
cer	-11.4086
▁draw	-11.4087
▁pilot	-11.4087
▁rojas	-11.4089
▁actual	-11.4101
vis	-11.4106
ñó	-11.413
▁disappoint	-11.4136
▁terror	-11.4136
▁lleg	-11.4136
▁cover	-11.4136
▁busc	-11.4141
▁física	-11.4145
▁oficial	-11.4145
▁attract	-11.4146
▁Shakespeare	-11.4148
▁acceso	-11.4148
▁actriz	-11.4148
▁ansioso	-11.4148
▁apellido	-11.4148
▁bribe	-11.4148
▁explosion	-11.4148
▁false	-11.4148
▁gloves	-11.4148
▁levanto	-11.4148
▁líder	-11.4148
▁nonsense	-11.4148
▁ocean	-11.4148
▁poker	-11.4148
▁politics	-11.4148
▁register	-11.4148
▁religion	-11.4148
▁reputation	-11.4148
▁thirteen	-11.4148
▁whistle	-11.4148
▁contrario	-11.4148
▁furioso	-11.4148
▁guantes	-11.4148
▁method	-11.4148
▁averg	-11.4148
▁temper	-11.4148
▁suave	-11.4148
▁termine	-11.4148
▁ladder	-11.4148
▁privado	-11.4148
▁refrigerador	-11.4148
▁adecuado	-11.4148
▁stake	-11.4148
▁desapareció	-11.4149
▁discussion	-11.4149
▁valla	-11.4149
▁Brit	-11.4149
▁martes	-11.4149
▁sunny	-11.4149
▁punta	-11.4149
▁impression	-11.4149
▁mandó	-11.4149
▁enamorada	-11.4149
▁preferida	-11.4149
▁cuidadosamente	-11.4149
▁puppy	-11.4149
▁obsequio	-11.415
▁obtuvo	-11.415
▁Wash	-11.415
▁spell	-11.415
▁drawer	-11.415
▁prohibited	-11.415
▁Nara	-11.4151
▁apply	-11.4151
▁cage	-11.4152
▁escapó	-11.4152
▁belt	-11.4152
▁posición	-11.4152
▁double	-11.4152
▁reasonable	-11.4153
▁jam	-11.4153
▁vine	-11.4154
▁planta	-11.4154
▁destroyed	-11.4154
▁granted	-11.4155
▁pica	-11.4156
▁creció	-11.4156
▁construyó	-11.4156
▁disfrutar	-11.4156
▁dificultades	-11.4156
▁Hang	-11.4157
▁mostraré	-11.4157
▁causó	-11.4158
▁delayed	-11.4158
▁podé	-11.4159
▁attractive	-11.4159
▁Sali	-11.416
▁canceled	-11.4162
▁wounded	-11.4163
▁talented	-11.4163
▁moral	-11.4163
▁mandar	-11.4163
▁sincera	-11.4164
▁Abre	-11.4165
▁defend	-11.4165
▁firm	-11.4166
▁llevara	-11.4168
▁Hablé	-11.4168
▁dile	-11.4168
▁uvas	-11.4169
▁materna	-11.4173
▁sujeto	-11.4173
▁self	-11.4176
▁mías	-11.4188
▁dudas	-11.419
▁lean	-11.4191
▁volvería	-11.4191
▁options	-11.4194
▁charged	-11.4197
▁peanuts	-11.4203
▁Sa	-11.4204
▁importantes	-11.4204
▁modelo	-11.421
▁orejas	-11.4211
▁ahorrar	-11.4217
▁seguía	-11.4219
▁degrees	-11.422
▁Mar	-11.4222
▁Entre	-11.4223
he	-11.4232
▁camina	-11.4239
▁Ning	-11.4247
▁snowed	-11.425
▁oblig	-11.4285
▁deny	-11.4293
▁coins	-11.4296
▁wi	-11.4298
rge	-11.4298
▁pasara	-11.4302
▁ayudado	-11.4306
▁humanos	-11.4316
▁Spr	-11.4322
▁documentos	-11.4323
▁newspapers	-11.4323
▁llegues	-11.4324
▁reasons	-11.4331
▁meters	-11.4335
▁asuntos	-11.4355
▁sur	-11.4365
ible	-11.4374
▁comp	-11.4378
rry	-11.438
▁cigarettes	-11.4381
men	-11.4409
▁participar	-11.4422
▁ricos	-11.4424
▁seré	-11.4427
▁cosecha	-11.4436
▁file	-11.4438
▁Espere	-11.444
▁plate	-11.4441
▁debt	-11.4444
▁amarilla	-11.4445
tener	-11.4447
▁employee	-11.4448
▁prisoner	-11.4449
▁loan	-11.4456
▁lesson	-11.4456
lic	-11.4467
▁Consider	-11.4471
costó	-11.4477
▁vano	-11.4479
▁vea	-11.4493
▁Estará	-11.4494
▁documento	-11.4498
▁closes	-11.451
vi	-11.4514
▁entregar	-11.4517
▁estén	-11.4519
▁entra	-11.453
▁demanda	-11.4547
either	-11.4553
▁cultura	-11.4558
ú	-11.4559
▁Ki	-11.456
▁seats	-11.4561
Que	-11.4566
▁bromas	-11.4571
Sí	-11.4579
der	-11.4586
ería	-11.4588
▁placer	-11.459
▁scream	-11.4599
▁pray	-11.4601
▁admire	-11.4608
▁mostrar	-11.461
▁spread	-11.4612
▁speed	-11.4612
▁acostar	-11.4614
▁flat	-11.4619
side	-11.4621
▁Promet	-11.4622
▁misterio	-11.4623
▁disfraz	-11.4623
encilla	-11.4623
ollow	-11.4624
▁Mantén	-11.4624
claró	-11.4624
▁Dinner	-11.4624
▁Tuesday	-11.4624
▁Welcome	-11.4624
▁access	-11.4624
▁ambulance	-11.4624
▁ambulancia	-11.4624
▁applie	-11.4624
▁apretó	-11.4624
▁atentamente	-11.4624
▁baggage	-11.4624
▁concurso	-11.4624
▁condujo	-11.4624
▁divertida	-11.4624
▁enfadó	-11.4624
▁ensalada	-11.4624
▁escucho	-11.4624
▁falso	-11.4624
▁impatient	-11.4624
▁inevitable	-11.4624
▁método	-11.4624
▁opciones	-11.4624
▁petróleo	-11.4624
▁responsabilidad	-11.4624
▁rifle	-11.4624
▁sugerencia	-11.4624
▁uñas	-11.4624
▁vecindario	-11.4624
▁voluntad	-11.4624
▁asesino	-11.4624
▁jeans	-11.4624
▁nowhere	-11.4624
▁tesoro	-11.4624
▁hidden	-11.4624
▁muriendo	-11.4624
▁package	-11.4624
▁obtener	-11.4624
▁President	-11.4624
▁begun	-11.4624
▁stage	-11.4624
▁calidad	-11.4625
▁diamond	-11.4625
▁siesta	-11.4625
▁burst	-11.4625
▁comiste	-11.4625
▁science	-11.4625
▁electricity	-11.4625
▁ease	-11.4625
▁lavadora	-11.4625
▁electricidad	-11.4625
▁involucrado	-11.4625
▁task	-11.4625
▁almohada	-11.4625
▁construir	-11.4625
▁properly	-11.4626
▁bigge	-11.4626
▁conocimos	-11.4626
▁Llovió	-11.4626
▁estalló	-11.4626
▁embarazada	-11.4626
▁Ayúdame	-11.4626
▁muerta	-11.4626
▁wheel	-11.4626
▁habitual	-11.4626
▁reservation	-11.4627
▁prefiero	-11.4628
▁fluently	-11.4628
▁china	-11.463
▁smarter	-11.4631
▁sentarse	-11.4631
▁barking	-11.4631
▁murderer	-11.4631
▁sewing	-11.4631
▁Tard	-11.4631
▁matado	-11.4632
▁confuso	-11.4632
▁baked	-11.4634
▁confessed	-11.4634
▁Déjalo	-11.4635
▁enseñarme	-11.4635
▁served	-11.4636
▁altos	-11.4636
▁bordo	-11.4637
▁echado	-11.4638
▁botas	-11.4639
▁olvidaré	-11.464
▁crossing	-11.4641
▁preparing	-11.4642
▁quietly	-11.4648
▁Trabaj	-11.4648
▁adopted	-11.4649
▁Vos	-11.4652
▁planted	-11.4652
▁incidente	-11.4655
▁classmates	-11.4655
▁Start	-11.466
▁rog	-11.4662
▁Po	-11.4663
▁scare	-11.4664
▁aliento	-11.4665
▁colores	-11.4665
▁bebo	-11.4665
▁haremos	-11.4666
▁odiaba	-11.4666
▁llegara	-11.4668
▁gane	-11.4677
▁aparte	-11.4679
▁siga	-11.4686
▁Corrí	-11.4694
E	-11.4704
▁However	-11.4716
▁grados	-11.4717
▁meta	-11.4718
▁estuvieron	-11.4725
▁historias	-11.4726
▁sales	-11.4731
▁wishes	-11.4734
▁aula	-11.474
▁facts	-11.4748
▁presentó	-11.476
▁echo	-11.4767
▁regalar	-11.477
▁comentarios	-11.4779
▁monedas	-11.4779
ul	-11.4781
rte	-11.4785
▁weapons	-11.4788
old	-11.4791
He	-11.4804
ug	-11.4804
▁maneja	-11.4806
▁reporte	-11.4818
▁presents	-11.4819
▁quieto	-11.4829
▁sings	-11.4837
▁sed	-11.484
ance	-11.4848
▁criad	-11.4858
one	-11.4866
ión	-11.4872
▁adult	-11.4896
Habla	-11.4898
▁sorprende	-11.4901
▁dejo	-11.4917
ight	-11.4925
▁burn	-11.4929
▁causes	-11.493
▁dueño	-11.4934
▁regrese	-11.4936
▁disponible	-11.4938
▁parecido	-11.4938
▁medicamento	-11.494
▁gallina	-11.494
▁sordo	-11.494
▁mejilla	-11.4941
▁deuda	-11.4941
▁cabra	-11.4941
▁político	-11.4944
▁acuerda	-11.4947
▁doubts	-11.4948
▁americano	-11.4949
▁alguno	-11.4949
▁callado	-11.4955
▁cares	-11.4957
▁aquello	-11.4959
▁metros	-11.496
▁presente	-11.4962
▁aprendí	-11.4975
▁volví	-11.4979
age	-11.4981
▁resolvi	-11.5027
▁ocurre	-11.5033
▁páginas	-11.5041
▁comete	-11.5041
▁Aquell	-11.5043
▁humano	-11.506
oso	-11.507
▁miente	-11.5078
▁jugaba	-11.5079
▁Creí	-11.5079
▁Gra	-11.5081
▁lent	-11.5085
Yes	-11.5087
ín	-11.5088
▁existe	-11.5089
▁poet	-11.5096
Hace	-11.5099
frica	-11.5108
▁permit	-11.5108
▁frame	-11.5111
▁flood	-11.5111
▁pour	-11.5112
ísimo	-11.5117
▁salí	-11.512
▁fox	-11.5122
▁knowing	-11.5123
▁lujo	-11.5123
year	-11.5124
hoose	-11.5124
▁magic	-11.5124
▁court	-11.5124
▁capacidad	-11.5124
▁deposit	-11.5124
▁April	-11.5124
▁California	-11.5124
▁Francisco	-11.5124
▁Greek	-11.5124
▁Hawái	-11.5124
▁absence	-11.5124
▁amabilidad	-11.5124
▁arriving	-11.5124
▁ceiling	-11.5124
▁committee	-11.5124
▁césped	-11.5124
▁ejército	-11.5124
▁engaged	-11.5124
▁espectáculo	-11.5124
▁evidencia	-11.5124
▁explosión	-11.5124
▁falsa	-11.5124
▁families	-11.5124
▁heavily	-11.5124
▁impresionado	-11.5124
▁infancia	-11.5124
▁insurance	-11.5124
▁jogging	-11.5124
▁malentendido	-11.5124
▁mordió	-11.5124
▁ocasión	-11.5124
▁outstanding	-11.5124
▁pimienta	-11.5124
▁political	-11.5124
▁quality	-11.5124
▁reputación	-11.5124
▁rostro	-11.5124
▁secundaria	-11.5124
▁sensitive	-11.5124
▁sociedad	-11.5124
▁treasure	-11.5124
▁unusual	-11.5124
▁barata	-11.5124
▁fridge	-11.5124
▁typhoon	-11.5124
▁amenaza	-11.5124
▁jaula	-11.5124
▁mentido	-11.5124
▁motorcycle	-11.5124
▁pregnant	-11.5124
▁priest	-11.5124
▁gentil	-11.5124
▁lucía	-11.5124
▁cities	-11.5124
▁sabia	-11.5125
▁investigación	-11.5125
▁boots	-11.5125
▁muero	-11.5125
▁pago	-11.5125
Creé	-11.5125
▁imaginación	-11.5125
▁estanque	-11.5125
▁carpet	-11.5125
▁bienvenida	-11.5125
▁melodía	-11.5125
▁importance	-11.5126
▁autoridad	-11.5126
▁exhausto	-11.5126
▁bailando	-11.5126
▁distinguish	-11.5126
▁babbling	-11.5126
▁entregó	-11.5126
▁objeto	-11.5126
▁tinta	-11.5126
▁picante	-11.5126
▁stove	-11.5126
▁depend	-11.5127
▁sabor	-11.5127
▁preocuparse	-11.5127
▁source	-11.5127
▁tejado	-11.5127
▁interesada	-11.5127
▁Poca	-11.5127
▁elegido	-11.5127
▁issue	-11.5128
▁Poco	-11.5128
▁restless	-11.5128
▁cuente	-11.5128
▁valuable	-11.5128
▁taxes	-11.5128
▁obligado	-11.5128
▁bitter	-11.5129
▁pasear	-11.5131
▁consume	-11.5132
▁shake	-11.5132
▁ignoró	-11.5132
▁collecting	-11.5133
▁esquí	-11.5135
▁shouted	-11.5135
▁presión	-11.5136
▁shorter	-11.5137
▁separated	-11.5138
▁torre	-11.5138
▁insisted	-11.5138
▁sour	-11.5144
▁hired	-11.5145
▁oldest	-11.5146
▁cero	-11.5147
▁casarme	-11.5148
▁podré	-11.5148
▁contarte	-11.5151
▁height	-11.5152
▁fiar	-11.5154
▁Korean	-11.5156
▁rented	-11.5159
▁encontraron	-11.5161
▁fan	-11.5161
▁nerviosa	-11.5163
▁volumen	-11.5168
▁tales	-11.5171
bre	-11.5173
▁imagined	-11.5173
▁closely	-11.5173
▁talla	-11.5173
▁lamento	-11.5178
ating	-11.5186
▁dejarlo	-11.5187
▁solucionar	-11.5188
▁encargar	-11.5208
▁llevaré	-11.5216
cated	-11.5224
▁Busqu	-11.523
▁alimentos	-11.5232
▁content	-11.5235
▁seca	-11.5236
▁mo	-11.5243
▁ink	-11.5245
▁dreaming	-11.5245
▁Love	-11.5246
▁vacas	-11.5261
▁reunir	-11.5264
▁sentados	-11.5273
▁vendi	-11.5277
▁alcanz	-11.5281
▁normas	-11.5296
led	-11.5299
▁Bell	-11.5299
▁cho	-11.5313
▁propios	-11.5319
▁veas	-11.5334
▁pobres	-11.5338
▁deer	-11.5342
▁Ba	-11.5347
▁aprobar	-11.535
▁south	-11.5351
▁seria	-11.5354
▁efforts	-11.5363
▁oppose	-11.5371
▁resulta	-11.5381
▁ga	-11.5381
▁Canadians	-11.5385
▁periódicos	-11.5385
▁cuid	-11.5387
▁rosas	-11.5399
ru	-11.5406
▁Ech	-11.5407
▁derechos	-11.5413
▁knee	-11.5417
▁base	-11.5422
▁Pe	-11.5422
▁prefiere	-11.5422
▁asusta	-11.5423
▁upon	-11.5425
darnos	-11.5435
▁product	-11.5441
▁roses	-11.5449
▁photograph	-11.5461
▁dama	-11.5466
gi	-11.5469
▁tourist	-11.5471
▁ésta	-11.5472
▁weapon	-11.5472
▁norma	-11.5476
▁necesite	-11.549
▁tune	-11.5491
ric	-11.5492
▁acepta	-11.5497
▁rate	-11.5498
ie	-11.5506
▁arregl	-11.5506
▁ignorar	-11.5509
▁debate	-11.551
▁tantos	-11.5512
▁claims	-11.5516
▁limpi	-11.5527
▁scar	-11.5543
▁fashion	-11.555
▁firme	-11.5558
▁sábados	-11.5564
arte	-11.5578
▁copa	-11.5587
▁Ca	-11.559
▁Hablar	-11.5596
F	-11.5601
What	-11.5601
▁volume	-11.5605
▁perdier	-11.5613
▁civil	-11.5614
▁cough	-11.5626
▁mires	-11.5626
▁arruin	-11.5632
▁approve	-11.5635
▁resign	-11.5638
▁servir	-11.564
fore	-11.5641
▁lastimar	-11.5641
get	-11.5642
▁fuese	-11.5643
▁cómodo	-11.5643
▁profesional	-11.5643
éjame	-11.5646
▁obvio	-11.565
▁burglar	-11.565
▁addict	-11.5651
▁occasion	-11.5651
▁Fortunately	-11.5651
▁Muéstrame	-11.5651
▁adicto	-11.5651
▁adonde	-11.5651
▁apoyó	-11.5651
▁cuaderno	-11.5651
▁deliciosa	-11.5651
▁egoísta	-11.5651
▁encender	-11.5651
▁escuché	-11.5651
▁festival	-11.5651
▁fresca	-11.5651
▁hoax	-11.5651
▁instructions	-11.5651
▁izquierdo	-11.5651
▁juicio	-11.5651
▁ketchup	-11.5651
▁knowledge	-11.5651
▁maestra	-11.5651
▁martillo	-11.5651
▁nature	-11.5651
▁ocurra	-11.5651
▁pizarra	-11.5651
▁pleasure	-11.5651
▁quarrel	-11.5651
▁retrasó	-11.5651
▁society	-11.5651
▁sombra	-11.5651
▁squeeze	-11.5651
▁target	-11.5651
▁temporada	-11.5651
▁tifón	-11.5651
▁unfair	-11.5651
▁universitario	-11.5651
▁upstairs	-11.5651
▁época	-11.5651
▁angel	-11.5651
▁ausencia	-11.5651
▁conceited	-11.5651
▁drew	-11.5651
▁hablé	-11.5651
▁harsh	-11.5651
▁row	-11.5651
▁vestida	-11.5651
▁coincidence	-11.5651
▁embajada	-11.5651
▁Juan	-11.5651
▁paliza	-11.5651
▁policy	-11.5651
▁práctica	-11.5651
▁rough	-11.5651
▁sunglasses	-11.5651
▁Play	-11.5651
▁almorzando	-11.5651
▁sheep	-11.5651
▁coraje	-11.5651
▁descubierto	-11.5651
▁culture	-11.5651
▁dieciocho	-11.5651
▁entrance	-11.5651
▁income	-11.5651
▁mystery	-11.5651
▁nation	-11.5651
▁swear	-11.5651
▁selfish	-11.5651
▁oeste	-11.5651
▁permitido	-11.5651
▁scenery	-11.5651
▁Cuent	-11.5651
▁habitaciones	-11.5651
▁nací	-11.5651
▁cigarro	-11.5651
▁imagination	-11.5651
▁educado	-11.5651
▁ventaja	-11.5651
▁estudió	-11.5651
▁silver	-11.5651
▁scratch	-11.5652
▁advirtió	-11.5652
▁muro	-11.5652
▁odd	-11.5652
▁Quien	-11.5652
▁Apreci	-11.5652
▁level	-11.5652
▁ambas	-11.5652
▁Fuma	-11.5652
▁presence	-11.5652
▁recientemente	-11.5652
▁honestidad	-11.5652
▁suitable	-11.5653
▁hundió	-11.5653
▁professional	-11.5653
▁ése	-11.5653
▁object	-11.5654
▁arrojó	-11.5654
▁cheaper	-11.5654
▁instrucciones	-11.5655
▁respirar	-11.5655
▁Enséñame	-11.5655
▁metido	-11.5656
▁barba	-11.5656
▁partió	-11.5656
▁mostrarte	-11.5657
▁caminaba	-11.5657
▁Any	-11.5657
▁agradeci	-11.5658
▁soul	-11.5659
▁arrepiento	-11.5659
▁decent	-11.566
▁bowed	-11.566
▁Tendrá	-11.566
▁miraron	-11.566
▁rescued	-11.5661
▁marchó	-11.5661
▁peligrosa	-11.5662
▁cazar	-11.5662
▁humo	-11.5662
▁progreso	-11.5665
▁fairly	-11.5666
▁framed	-11.5667
▁abril	-11.5667
▁discuti	-11.5668
▁disparar	-11.5668
▁shocked	-11.5669
▁tiende	-11.5671
▁personally	-11.5673
▁quarter	-11.5677
▁Querría	-11.5677
▁intended	-11.5678
▁crecí	-11.5684
▁adjust	-11.5689
▁quemó	-11.5689
▁posee	-11.5697
▁tip	-11.5699
▁ayudando	-11.57
▁quejó	-11.5702
▁herramientas	-11.5705
▁pasaba	-11.5706
▁players	-11.5706
▁shed	-11.571
▁leerlo	-11.5713
▁chosen	-11.5719
▁comía	-11.572
▁rely	-11.5723
▁sellos	-11.5723
▁preciosa	-11.5729
nzó	-11.5729
▁presta	-11.573
▁Conocí	-11.5731
▁grades	-11.5734
▁solar	-11.574
day	-11.574
▁saludó	-11.5749
▁turistas	-11.5754
▁gemelos	-11.5764
▁sonando	-11.5764
▁pruebas	-11.5768
▁admira	-11.577
▁fate	-11.5773
▁oso	-11.5775
▁terms	-11.5783
▁serpientes	-11.5793
▁despertador	-11.5795
ard	-11.5807
▁na	-11.5808
▁grown	-11.5816
▁lucha	-11.5816
▁papers	-11.5818
guió	-11.5825
▁harás	-11.5834
▁americanos	-11.5843
▁pop	-11.5876
▁po	-11.5877
▁aside	-11.5878
Nos	-11.5887
▁calles	-11.5891
▁roll	-11.5892
▁hablamos	-11.5893
▁Veni	-11.5894
▁extraños	-11.5907
▁disfrut	-11.5907
▁ob	-11.5913
▁rep	-11.5928
▁helps	-11.5931
Era	-11.5949
▁cargar	-11.5951
▁superar	-11.5956
▁aguantar	-11.597
▁piense	-11.5978
▁places	-11.5981
▁trabajan	-11.5988
▁Tras	-11.5988
▁behave	-11.6
▁amas	-11.6003
▁ca	-11.6004
nswer	-11.6007
▁cura	-11.6011
▁coin	-11.6015
▁cobarde	-11.6016
▁guardia	-11.6019
biste	-11.602
▁custom	-11.6021
▁curtain	-11.6024
▁demand	-11.6024
▁rodilla	-11.6025
▁oscura	-11.6026
▁cigarrillo	-11.6026
▁moneda	-11.6028
▁comentario	-11.6028
▁stamp	-11.6029
▁coches	-11.6034
▁sucio	-11.6038
▁twin	-11.604
▁abra	-11.604
▁guarda	-11.6048
ze	-11.605
cantaría	-11.6061
▁protest	-11.6082
▁aterriz	-11.6083
ria	-11.6087
▁budge	-11.6114
▁vend	-11.6117
▁comparti	-11.6132
▁entradas	-11.6136
▁Amo	-11.6139
wa	-11.6147
▁repar	-11.6152
mail	-11.6162
▁pa	-11.6166
▁jobs	-11.6167
▁brand	-11.6174
zco	-11.6177
▁che	-11.618
▁vuestros	-11.6187
▁Pid	-11.6187
▁shame	-11.6188
▁design	-11.6189
▁increase	-11.619
▁poison	-11.6193
▁sweat	-11.6193
Ello	-11.6195
▁bowl	-11.6195
▁triunfar	-11.62
▁Trae	-11.62
▁unexpected	-11.6201
▁brief	-11.6206
▁Enciend	-11.6206
▁Falta	-11.6206
▁Rusia	-11.6206
▁South	-11.6206
▁comité	-11.6206
▁conociera	-11.6206
▁cálido	-11.6206
▁despedida	-11.6206
▁diecisiete	-11.6206
▁engañó	-11.6206
▁garbage	-11.6206
▁gasolina	-11.6206
▁hockey	-11.6206
▁inconsciente	-11.6206
▁milagro	-11.6206
▁mouse	-11.6206
▁mutuamente	-11.6206
▁oxígeno	-11.6206
▁promotion	-11.6206
▁química	-11.6206
▁resort	-11.6206
▁revés	-11.6206
▁sonríe	-11.6206
▁spade	-11.6206
▁stubborn	-11.6206
▁tabaco	-11.6206
▁universe	-11.6206
▁universo	-11.6206
▁unreliable	-11.6206
▁Everest	-11.6206
▁seventeen	-11.6206
▁drowning	-11.6206
▁suceda	-11.6206
▁apology	-11.6206
▁terrific	-11.6206
▁dormida	-11.6206
▁deprimido	-11.6206
▁trunk	-11.6206
▁pillow	-11.6206
▁sabés	-11.6206
▁periodista	-11.6206
▁batería	-11.6206
▁hugged	-11.6206
▁reducir	-11.6206
▁discutiendo	-11.6206
▁replace	-11.6207
▁blackboard	-11.6207
▁Kobe	-11.6207
▁estantería	-11.6207
▁Afortunadamente	-11.6207
▁robando	-11.6207
▁wide	-11.6207
▁observando	-11.6207
▁ángel	-11.6207
▁contraseña	-11.6208
▁password	-11.6208
▁hammer	-11.6208
imít	-11.6208
▁tinto	-11.6208
▁reina	-11.6209
▁bleeding	-11.6209
▁parcial	-11.6209
▁traduj	-11.6209
▁partida	-11.6209
▁threatened	-11.6209
▁abandonado	-11.621
▁soft	-11.621
▁released	-11.621
▁optimista	-11.621
▁salieron	-11.621
▁sonriendo	-11.6211
▁caminó	-11.6211
▁caído	-11.6211
▁disguised	-11.6212
▁costará	-11.6213
▁creep	-11.6213
urió	-11.6213
▁incómodo	-11.6214
▁Santa	-11.6215
▁mission	-11.6215
▁Pása	-11.6216
▁arrogante	-11.6216
▁dating	-11.6216
▁sa	-11.6216
▁mancha	-11.6217
▁heater	-11.6217
▁Primero	-11.6218
▁estacionar	-11.6219
▁lección	-11.622
▁Esperaré	-11.622
▁Escriba	-11.622
Ves	-11.6221
▁jugadores	-11.6222
▁approved	-11.6223
▁Haría	-11.6223
▁tipos	-11.6224
▁naturales	-11.6225
▁computadores	-11.6227
▁suffering	-11.6228
▁riendo	-11.6229
gó	-11.6232
▁logro	-11.6232
▁yard	-11.6232
▁Pregunta	-11.6233
dical	-11.6236
▁moderna	-11.6237
▁poeta	-11.6237
▁Vosotr	-11.6238
▁decente	-11.6239
▁cómoda	-11.6247
▁kilos	-11.6253
▁manners	-11.6253
▁invent	-11.6255
▁informed	-11.6257
tendremos	-11.6257
leaned	-11.6258
▁celebra	-11.6258
▁aparcar	-11.6259
construido	-11.626
▁painful	-11.6261
▁senté	-11.6266
▁Mu	-11.6273
▁labios	-11.6275
▁evento	-11.6276
▁pasarme	-11.6277
▁pasaría	-11.6281
▁llevará	-11.6283
▁decirlo	-11.6285
▁divorci	-11.6285
▁treaty	-11.6285
▁incorrecta	-11.6289
▁celebrate	-11.629
▁Jo	-11.63
▁feo	-11.6308
▁gustado	-11.631
▁u	-11.6315
ick	-11.6321
▁sangra	-11.6327
▁hagamos	-11.6328
rán	-11.6333
▁comprarse	-11.6335
▁botellas	-11.6342
▁considerar	-11.6347
▁dim	-11.6352
▁snakes	-11.6357
▁conejos	-11.6357
▁permanecer	-11.6364
▁bottles	-11.6373
▁abuse	-11.6373
▁clientes	-11.638
▁mud	-11.6382
▁éstas	-11.6399
▁products	-11.64
▁necesites	-11.64
▁Co	-11.64
▁desayuna	-11.6403
▁Lee	-11.641
▁colors	-11.642
▁extrañar	-11.6429
▁lados	-11.6435
nce	-11.644
▁dependen	-11.6465
▁extranjeras	-11.6473
▁chistes	-11.6475
▁Man	-11.6507
out	-11.6508
▁owner	-11.6513
▁Compart	-11.653
▁Par	-11.6532
▁resultar	-11.6534
Los	-11.6536
▁hoped	-11.6549
▁tela	-11.6551
▁cop	-11.6554
▁trains	-11.6564
▁damage	-11.6588
▁bi	-11.6588
pidieron	-11.6593
▁clara	-11.6601
▁italiano	-11.6604
▁malos	-11.6608
▁zorro	-11.6608
iva	-11.6616
▁pr	-11.6618
▁cliente	-11.6618
cé	-11.662
▁Ku	-11.6623
▁atrapar	-11.6623
▁dollar	-11.6628
▁stepp	-11.6639
▁fuente	-11.6641
▁baña	-11.6642
lf	-11.6646
bout	-11.665
▁mono	-11.6652
▁V	-11.6654
▁decepcionar	-11.6661
▁contactar	-11.6662
▁juegos	-11.6669
▁encuentras	-11.6688
▁suicidar	-11.6689
▁mata	-11.6696
ship	-11.6707
aría	-11.6708
eza	-11.6716
▁Viaj	-11.6718
▁utiliza	-11.6718
▁puñ	-11.6724
chi	-11.6727
arlo	-11.6732
▁mentiras	-11.6734
How	-11.6745
▁Russia	-11.6749
five	-11.6755
▁disgust	-11.6767
▁wealth	-11.6767
dos	-11.6768
▁shout	-11.677
Pensá	-11.677
▁separate	-11.6776
▁mat	-11.6779
▁blow	-11.6783
▁Dese	-11.6783
▁hug	-11.6783
▁consult	-11.6785
▁nuclear	-11.6787
▁thorough	-11.6788
▁habilidad	-11.6788
▁gang	-11.6788
▁prince	-11.6791
▁delay	-11.6792
▁rápida	-11.6792
▁joy	-11.6793
▁disagree	-11.6794
ídele	-11.6794
emember	-11.6794
▁skate	-11.6794
eligió	-11.6794
▁Biblia	-11.6794
▁Mundial	-11.6794
▁aburrida	-11.6794
▁actitud	-11.6794
▁anteojos	-11.6794
▁attitude	-11.6794
▁auténtico	-11.6794
▁challenge	-11.6794
▁cottage	-11.6794
▁desastre	-11.6794
▁desierta	-11.6794
▁downstairs	-11.6794
▁financial	-11.6794
▁flashlight	-11.6794
▁funcionó	-11.6794
▁innocence	-11.6794
▁journalist	-11.6794
▁junk	-11.6794
▁lastimó	-11.6794
▁lápices	-11.6794
▁narrow	-11.6794
▁preferiría	-11.6794
▁promedio	-11.6794
▁príncipe	-11.6794
▁pálido	-11.6794
▁reduce	-11.6794
▁regreso	-11.6794
▁repugnante	-11.6794
▁scissors	-11.6794
▁simpático	-11.6794
▁soñando	-11.6794
▁whale	-11.6794
▁harina	-11.6794
▁opposite	-11.6794
▁sensación	-11.6794
▁trigger	-11.6794
▁zona	-11.6794
▁hunch	-11.6794
▁confesó	-11.6794
▁anterior	-11.6795
▁demostrar	-11.6795
▁desaparecido	-11.6795
▁slam	-11.6795
▁horario	-11.6795
▁stomachache	-11.6795
▁Perdone	-11.6795
▁miracle	-11.6795
▁atento	-11.6795
▁sirvió	-11.6795
▁conjunto	-11.6795
▁traslad	-11.6795
▁nightmare	-11.6795
▁pozo	-11.6795
▁purse	-11.6795
▁crack	-11.6795
▁affect	-11.6795
▁decidiste	-11.6795
▁lavó	-11.6795
▁antig	-11.6795
▁merecía	-11.6795
▁sabio	-11.6795
▁pipe	-11.6795
▁authority	-11.6795
▁nearby	-11.6795
▁frecuentemente	-11.6795
▁remarkable	-11.6795
▁soltera	-11.6795
▁Merece	-11.6795
▁Siéntate	-11.6795
▁Generally	-11.6795
▁invention	-11.6795
▁sopl	-11.6795
▁estilo	-11.6796
▁operation	-11.6796
▁eyesight	-11.6796
▁lamp	-11.6796
▁stock	-11.6796
▁acondicionado	-11.6796
▁ayudé	-11.6796
▁confidence	-11.6796
▁appetite	-11.6796
▁rejected	-11.6796
▁Bible	-11.6797
▁construcción	-11.6797
▁informado	-11.6797
▁Price	-11.6797
▁desgracia	-11.6798
▁gastos	-11.6798
▁planned	-11.6798
▁happier	-11.6799
▁Seguí	-11.6799
▁Cuéntame	-11.6799
▁mostrarme	-11.68
▁invitaron	-11.6801
▁Frankly	-11.6801
▁boiling	-11.6801
▁pavo	-11.6802
▁automobile	-11.6802
▁condición	-11.6802
▁swam	-11.6802
▁secó	-11.6802
▁defense	-11.6802
▁proof	-11.6802
▁explicarlo	-11.6803
▁sincero	-11.6806
▁sweating	-11.6807
▁sandwiches	-11.6807
▁kite	-11.6807
▁lloverá	-11.6808
▁burning	-11.6808
▁cogido	-11.6809
▁pondrá	-11.6809
▁screamed	-11.681
▁conocerte	-11.6811
▁preguntarte	-11.6811
▁crudo	-11.6814
▁Pay	-11.6815
son	-11.6816
▁pasaste	-11.6816
▁balde	-11.6816
▁minor	-11.6817
▁participate	-11.6823
▁tonta	-11.6824
▁enseñaré	-11.6825
▁cochera	-11.6825
▁tiro	-11.6827
tando	-11.6827
▁ponerme	-11.6828
▁barber	-11.6836
▁checked	-11.6836
▁avoided	-11.6837
▁apetece	-11.6838
▁uniforme	-11.6841
▁nodded	-11.6843
▁dominar	-11.6844
▁crowded	-11.6845
▁influencia	-11.685
▁assure	-11.6853
▁pronounce	-11.6857
éramos	-11.6858
▁Hand	-11.6862
njoy	-11.6866
▁lit	-11.687
▁fuertes	-11.6878
▁yendo	-11.688
▁breaking	-11.688
voted	-11.6882
▁officer	-11.6882
▁encontrarte	-11.6883
▁daría	-11.6889
tand	-11.6892
▁estudias	-11.6903
dí	-11.6906
▁Dog	-11.6925
▁Mont	-11.6939
▁aman	-11.694
▁juegan	-11.6941
▁strike	-11.6945
ana	-11.6945
▁parking	-11.6955
▁cave	-11.6957
▁acción	-11.6962
▁conté	-11.6962
▁adultos	-11.6968
▁gifts	-11.6973
▁Aprend	-11.6974
▁particip	-11.6976
irió	-11.6978
▁knees	-11.7001
tiendo	-11.7002
▁sienten	-11.7004
▁osos	-11.7009
▁prepara	-11.7019
▁amarillas	-11.7022
▁alcanza	-11.7026
ang	-11.7027
vy	-11.7041
▁científicos	-11.7045
▁Busc	-11.7048
edades	-11.7051
ge	-11.7052
▁alegre	-11.7059
▁saca	-11.706
▁asientos	-11.7067
▁lovely	-11.707
▁tires	-11.7071
ank	-11.7083
▁Tant	-11.7091
▁pon	-11.7095
▁acostumbr	-11.7096
▁confirm	-11.7108
▁toque	-11.7118
▁ocupar	-11.7121
▁salgas	-11.7123
áramos	-11.7135
▁aprende	-11.7164
▁encantador	-11.7167
▁Aprender	-11.717
▁understanding	-11.7185
ismo	-11.7185
▁Cree	-11.7186
▁fueras	-11.7188
▁pages	-11.7192
▁Cog	-11.7195
▁tire	-11.72
▁accord	-11.7201
▁luchar	-11.7223
▁meals	-11.7227
▁fea	-11.7232
▁pesadilla	-11.7232
▁brain	-11.7234
▁sabrá	-11.7237
▁cortina	-11.7239
▁cheque	-11.724
▁invit	-11.7241
▁ghost	-11.7242
▁detalle	-11.7243
▁molestar	-11.7258
▁listens	-11.7258
▁bolsillos	-11.7261
▁dare	-11.7263
▁Ver	-11.7265
▁respond	-11.727
manded	-11.7281
▁pockets	-11.7284
▁detenido	-11.7287
▁violent	-11.7289
▁supe	-11.7292
▁revistas	-11.7295
▁adulto	-11.7297
ez	-11.7298
▁magazines	-11.7307
▁maletas	-11.7307
iv	-11.7317
▁muchachos	-11.7318
endremos	-11.7337
▁fi	-11.7339
cierto	-11.7345
▁hijas	-11.7345
▁viaj	-11.7352
▁vives	-11.7364
Pero	-11.7369
R	-11.737
rain	-11.738
▁entendí	-11.7381
▁Vivi	-11.7394
▁pack	-11.7395
▁origin	-11.74
▁hesitate	-11.7404
irds	-11.7406
▁faint	-11.7407
▁sobrevivir	-11.7407
▁confess	-11.7407
▁borde	-11.7407
▁convenient	-11.7407
▁Vuelv	-11.7408
▁superior	-11.7412
▁tenedor	-11.7412
▁comercial	-11.7413
▁engañar	-11.7413
▁spli	-11.7417
▁sink	-11.7417
▁profunda	-11.7418
▁veneno	-11.7418
▁North	-11.7419
▁conscious	-11.7419
tacó	-11.7419
▁excepcional	-11.7419
▁necesaria	-11.7419
▁Claus	-11.7419
▁Halloween	-11.7419
▁January	-11.7419
▁Narita	-11.7419
▁album	-11.7419
▁apetito	-11.7419
▁cafetería	-11.7419
▁ciega	-11.7419
▁clásica	-11.7419
▁complex	-11.7419
▁conocieron	-11.7419
▁conseguido	-11.7419
▁decírselo	-11.7419
▁desmayó	-11.7419
▁determine	-11.7419
▁disculpó	-11.7419
▁ebrio	-11.7419
▁eléctrica	-11.7419
▁falleció	-11.7419
▁gatillo	-11.7419
▁grifo	-11.7419
▁húmedo	-11.7419
▁independiente	-11.7419
▁intérprete	-11.7419
▁lectura	-11.7419
▁leña	-11.7419
▁ligero	-11.7419
▁linterna	-11.7419
▁luggage	-11.7419
▁mobile	-11.7419
▁navidad	-11.7419
▁pajamas	-11.7419
▁patinar	-11.7419
▁pijama	-11.7419
▁pánico	-11.7419
▁religión	-11.7419
▁responsibility	-11.7419
▁romantic	-11.7419
▁rompecabezas	-11.7419
▁screw	-11.7419
▁siguiendo	-11.7419
▁translation	-11.7419
▁veloz	-11.7419
▁vencido	-11.7419
▁vídeo	-11.7419
▁Four	-11.7419
▁aceite	-11.7419
▁assistant	-11.7419
▁eighteen	-11.7419
▁rising	-11.7419
▁Drink	-11.7419
▁UFO	-11.7419
▁corriente	-11.7419
▁interior	-11.7419
▁traicionó	-11.7419
▁coincidencia	-11.7419
▁infantil	-11.7419
▁esperé	-11.742
▁vegetales	-11.742
▁Juego	-11.742
▁amusing	-11.742
▁typical	-11.742
▁Walk	-11.742
▁acciones	-11.742
▁desperate	-11.742
▁disaster	-11.742
▁pintor	-11.742
▁dozen	-11.742
▁punctual	-11.742
oger	-11.742
▁resuelto	-11.742
▁cocinero	-11.742
▁competition	-11.742
▁amazed	-11.742
▁further	-11.742
▁datos	-11.742
▁crema	-11.742
▁Juguemos	-11.742
▁fog	-11.742
▁Luna	-11.742
▁drowned	-11.742
▁mínimo	-11.742
▁Summer	-11.742
▁pasaje	-11.742
▁guía	-11.742
▁treatment	-11.7421
▁communicate	-11.7421
▁tratamiento	-11.7421
▁lenguaje	-11.7421
▁tranquila	-11.7421
▁directamente	-11.7421
▁desocupado	-11.7421
▁"¡	-11.7421
▁salón	-11.7421
▁path	-11.7421
▁comenzado	-11.7421
▁topic	-11.7421
▁thrilled	-11.7422
▁safety	-11.7422
▁atravesó	-11.7422
▁visible	-11.7422
▁librería	-11.7423
▁dibujo	-11.7423
▁quejarse	-11.7423
▁gripe	-11.7423
▁soap	-11.7424
▁encouraged	-11.7424
▁poquito	-11.7424
▁sorprendería	-11.7424
▁Cuidado	-11.7425
▁flow	-11.7425
▁cheered	-11.7426
▁alegría	-11.7426
▁lotería	-11.7426
▁enseñando	-11.7426
▁exitoso	-11.7427
▁subiendo	-11.7427
▁deceived	-11.7427
▁delgado	-11.7427
▁warmer	-11.7428
▁Prob	-11.7428
▁crush	-11.7428
▁continuó	-11.7429
▁Hici	-11.7429
▁Tóma	-11.7429
▁entré	-11.7429
▁temer	-11.743
▁sentamos	-11.743
▁ganando	-11.7431
▁personalmente	-11.7431
▁unknown	-11.7432
▁comúnmente	-11.7432
▁fainted	-11.7432
▁painter	-11.7433
▁astuto	-11.7434
▁loudly	-11.7435
▁mudó	-11.7435
▁cloudy	-11.7436
▁recursos	-11.7437
▁gastado	-11.7437
▁float	-11.7438
▁damaged	-11.7438
▁completa	-11.7438
▁crashed	-11.744
▁lu	-11.744
▁consiga	-11.7441
▁traiga	-11.7441
▁sudando	-11.7443
▁respetar	-11.7443
▁retired	-11.7443
▁incorrecto	-11.7446
▁career	-11.745
▁misión	-11.745
▁preguntando	-11.7455
▁Veng	-11.7457
▁resistir	-11.7458
▁pis	-11.7458
▁papeles	-11.746
▁insectos	-11.7461
▁Compr	-11.7469
▁divorcio	-11.747
▁faith	-11.7472
▁latest	-11.7474
▁conseguí	-11.7474
▁tower	-11.7478
▁agradezco	-11.748
▁chances	-11.7483
▁retire	-11.7484
▁creí	-11.7488
▁Mire	-11.7489
▁Usa	-11.7492
▁realizar	-11.7497
▁enojar	-11.7501
▁trabajador	-11.7505
▁ideal	-11.7506
▁colecciona	-11.7507
▁consecuencias	-11.7508
▁beard	-11.7509
ither	-11.7512
▁Abra	-11.7514
▁Ocurri	-11.7524
▁dejas	-11.7526
▁sabías	-11.7536
▁Vol	-11.7547
ier	-11.755
▁familias	-11.7554
▁bananas	-11.7555
▁cor	-11.7563
▁Encontra	-11.7564
▁Wh	-11.7564
▁blamed	-11.7564
▁seated	-11.757
▁juntar	-11.7577
ali	-11.7577
▁lobos	-11.7579
▁foreigners	-11.758
▁west	-11.7586
▁owes	-11.7588
▁ayudes	-11.7592
▁cups	-11.7602
▁ladra	-11.7605
▁Esperé	-11.7613
▁cigarrillos	-11.7627
▁pienses	-11.7628
▁tourists	-11.7639
▁políticos	-11.7651
▁sois	-11.7665
▁lawn	-11.7671
▁juguetes	-11.7675
▁serás	-11.7683
▁asustar	-11.7686
tura	-11.769
▁comprende	-11.7691
▁documents	-11.77
▁tapa	-11.7705
misunderstanding	-11.7718
▁golpear	-11.7721
pped	-11.7729
▁Guarda	-11.7729
▁charlar	-11.7739
▁letras	-11.7759
▁encantado	-11.7779
▁decid	-11.7799
aje	-11.7804
▁super	-11.7806
▁weigh	-11.7816
scribió	-11.7844
▁ours	-11.786
▁abrí	-11.787
▁Th	-11.7885
▁conocimiento	-11.7896
▁ciervo	-11.7897
▁rabbit	-11.7898
▁corté	-11.7898
▁mosquito	-11.7901
▁conozca	-11.7903
▁pedazo	-11.7904
▁encuentre	-11.7905
▁politician	-11.7905
▁prisionero	-11.7905
▁despertado	-11.7905
▁sienta	-11.7906
▁conejo	-11.7907
▁Conoce	-11.7907
▁serpiente	-11.7907
▁snake	-11.7907
▁Well	-11.7912
▁voluntario	-11.7915
▁llora	-11.7919
elo	-11.7927
▁escala	-11.7928
L	-11.7952
adora	-11.7962
ors	-11.7974
▁prima	-11.7992
▁vasos	-11.7992
▁daughters	-11.7997
cel	-11.7999
▁rainy	-11.8002
▁loose	-11.8009
cho	-11.8009
melo	-11.8013
▁pencils	-11.8016
▁vaca	-11.8024
▁asegur	-11.8028
shirt	-11.8037
thirty	-11.8037
Ahora	-11.8037
Where	-11.8037
▁Corri	-11.8039
▁CDs	-11.8041
▁event	-11.8042
handed	-11.8042
Sal	-11.8043
▁horror	-11.8043
illas	-11.8056
▁collect	-11.8061
▁revis	-11.8062
▁quedará	-11.8064
▁llamadas	-11.8068
▁chill	-11.8074
▁Ex	-11.8079
▁escolar	-11.8079
▁divertir	-11.8079
ece	-11.8083
▁negar	-11.8083
ijiste	-11.8084
▁estuvi	-11.8084
Vive	-11.8085
signed	-11.8085
▁trigo	-11.8086
▁Segund	-11.8086
▁aburre	-11.8086
▁application	-11.8086
▁aprobado	-11.8086
▁atractiva	-11.8086
▁culpo	-11.8086
▁cálida	-11.8086
▁económico	-11.8086
▁eléctrico	-11.8086
▁escrita	-11.8086
▁exámenes	-11.8086
▁fierce	-11.8086
▁forehead	-11.8086
▁frigorífico	-11.8086
▁haircut	-11.8086
▁handwriting	-11.8086
▁harvest	-11.8086
▁impedir	-11.8086
▁independent	-11.8086
▁ladrones	-11.8086
▁médica	-11.8086
▁niebla	-11.8086
▁ochenta	-11.8086
▁ordinary	-11.8086
▁popcorn	-11.8086
▁purchase	-11.8086
▁recibí	-11.8086
▁reconoció	-11.8086
▁research	-11.8086
▁riqueza	-11.8086
▁rotten	-11.8086
▁stool	-11.8086
▁thumb	-11.8086
▁toothpaste	-11.8086
▁turkey	-11.8086
▁underestimate	-11.8086
▁universal	-11.8086
▁volleyball	-11.8086
▁álbum	-11.8086
▁Depende	-11.8086
▁audiencia	-11.8086
▁gatito	-11.8086
▁infeliz	-11.8086
▁magia	-11.8086
▁resume	-11.8086
▁sesenta	-11.8086
▁circumstances	-11.8086
▁conociste	-11.8086
▁glance	-11.8086
▁heladera	-11.8086
▁pésimo	-11.8086
▁stew	-11.8086
▁timbre	-11.8086
▁withdraw	-11.8086
▁Esperanto	-11.8086
▁tijeras	-11.8086
▁bookstore	-11.8086
▁virus	-11.8086
▁tentación	-11.8086
▁Rais	-11.8086
▁aguanto	-11.8086
▁flour	-11.8086
▁punishment	-11.8086
▁department	-11.8086
▁Sign	-11.8086
▁princesa	-11.8086
▁pink	-11.8086
▁bici	-11.8086
ámonos	-11.8086
▁Suena	-11.8087
▁avisar	-11.8087
▁alquiler	-11.8087
▁spot	-11.8087
▁active	-11.8087
▁practicing	-11.8087
▁Generalmente	-11.8087
▁otherwise	-11.8087
▁wings	-11.8087
▁frog	-11.8087
▁lightning	-11.8087
▁casco	-11.8087
▁encendida	-11.8087
▁oxygen	-11.8087
▁rió	-11.8087
▁powerful	-11.8087
▁secretary	-11.8087
▁wheat	-11.8087
▁ahorros	-11.8087
▁decidieron	-11.8087
▁investigando	-11.8087
▁prometido	-11.8087
▁rio	-11.8087
▁published	-11.8087
▁recomendó	-11.8088
▁Bienvenido	-11.8088
▁asintió	-11.8088
▁bump	-11.8089
▁sucedido	-11.8089
▁l	-11.8089
▁preocuparme	-11.8089
▁perd	-11.8089
▁oven	-11.8089
hrow	-11.8089
▁dish	-11.809
▁silly	-11.809
main	-11.809
▁complaints	-11.809
▁mencionó	-11.8091
▁enamoró	-11.8091
▁difficulties	-11.8091
▁track	-11.8092
▁beans	-11.8092
▁square	-11.8092
nza	-11.8093
▁distinta	-11.8093
▁trescient	-11.8093
▁llegada	-11.8093
▁preparada	-11.8093
▁distract	-11.8093
▁bajando	-11.8094
▁agudo	-11.8094
▁pretendía	-11.8094
▁Camina	-11.8095
▁cedió	-11.8095
▁cumplido	-11.8095
▁punch	-11.8096
▁Quit	-11.8096
▁micro	-11.8097
▁conducta	-11.8097
▁Elige	-11.8098
▁grito	-11.8098
▁muestra	-11.8098
▁lottery	-11.8099
▁caza	-11.8099
▁Habrá	-11.8102
▁escriba	-11.8104
▁disco	-11.8105
▁insects	-11.8105
▁bola	-11.8106
▁higher	-11.8107
▁border	-11.8108
▁insulted	-11.8109
▁admired	-11.811
▁barrio	-11.8111
▁improved	-11.8112
▁contestó	-11.8114
▁astronauta	-11.8115
▁climbing	-11.8117
▁resources	-11.8118
▁alérgica	-11.8119
▁leyes	-11.8119
▁ayudarla	-11.812
▁señora	-11.8121
▁pasas	-11.8123
▁instante	-11.8123
▁palo	-11.8123
▁scary	-11.8125
▁relaxed	-11.8126
▁apaga	-11.8127
▁segundos	-11.8128
▁insistió	-11.8129
▁salvajes	-11.813
▁dancer	-11.8131
▁Baja	-11.8136
▁nerves	-11.8143
▁usualmente	-11.8144
▁visitors	-11.8144
Vamos	-11.8146
mb	-11.8153
▁Encontrar	-11.8154
▁deserved	-11.816
▁thanks	-11.8162
▁Donde	-11.8163
▁lips	-11.8168
▁intentes	-11.8169
▁Comi	-11.8173
▁Y	-11.8173
▁r	-11.8175
▁locos	-11.818
ished	-11.8182
▁worrying	-11.8185
▁forty	-11.8193
▁humana	-11.8193
▁veras	-11.8195
▁budget	-11.8199
▁stops	-11.82
▁tuyos	-11.8205
▁dormía	-11.8206
▁balance	-11.8211
▁veros	-11.8211
med	-11.8217
▁estacion	-11.8231
▁busca	-11.8234
tuviste	-11.8241
▁velas	-11.8245
▁aim	-11.8245
tions	-11.8246
▁preocupados	-11.8267
▁esperara	-11.8268
▁sientas	-11.827
▁nails	-11.8273
▁advis	-11.8273
▁difíciles	-11.8279
▁cortinas	-11.8283
▁Add	-11.8288
▁cabe	-11.8288
ter	-11.8292
▁Gue	-11.8293
sion	-11.8294
▁cometa	-11.8294
▁sucede	-11.83
▁tru	-11.83
▁Salí	-11.8301
Vendré	-11.8305
ense	-11.8305
▁prefieres	-11.8322
▁infla	-11.8324
rías	-11.8333
▁adults	-11.8335
▁remains	-11.8339
rían	-11.8357
▁beg	-11.8358
cy	-11.8364
▁formal	-11.8365
▁regards	-11.8373
Seguro	-11.8374
▁gustaban	-11.8378
▁showing	-11.8381
tivo	-11.8388
▁hablarle	-11.8392
▁usan	-11.8393
▁seek	-11.8402
sumí	-11.8404
▁cu	-11.8409
▁escaso	-11.8423
way	-11.8427
▁ancianos	-11.8446
ló	-11.8456
▁guns	-11.8459
▁Dr	-11.8463
▁Ésto	-11.847
▁llaman	-11.8472
telo	-11.8489
▁abandon	-11.8494
▁rojos	-11.8498
▁aplica	-11.8498
▁estúpidas	-11.8502
▁seda	-11.8534
ándome	-11.8537
▁caus	-11.8548
▁fuerzas	-11.8555
▁vueltas	-11.8565
▁Bar	-11.8565
tter	-11.8566
▁Cor	-11.8569
▁limpias	-11.8578
▁suitcases	-11.8581
▁vayan	-11.8583
▁considera	-11.8584
nything	-11.8601
▁secretos	-11.8609
▁ocup	-11.8612
ware	-11.8612
▁character	-11.8613
▁crece	-11.8614
▁principiante	-11.8616
▁farmer	-11.8617
ctually	-11.8617
imed	-11.8618
▁elefante	-11.8618
▁comment	-11.8619
▁candle	-11.862
▁nail	-11.862
▁pide	-11.8621
▁fantasma	-11.8623
▁droga	-11.8624
▁cookie	-11.8625
▁baila	-11.8625
▁foreigner	-11.863
▁piedras	-11.8634
▁i	-11.8637
▁serve	-11.8639
▁sometime	-11.8641
▁goat	-11.8642
▁Ka	-11.8642
▁trozos	-11.8647
▁moto	-11.8652
▁term	-11.8658
▁streets	-11.8669
bor	-11.8675
▁crea	-11.8677
▁hermosas	-11.8695
▁Comprend	-11.87
nyone	-11.87
▁lobo	-11.87
▁competent	-11.8701
▁individual	-11.8703
selo	-11.8704
▁grano	-11.8705
▁liber	-11.8711
▁exact	-11.8724
▁consist	-11.8727
▁smokes	-11.8731
mento	-11.8739
▁tumba	-11.8744
Fuiste	-11.8747
Sigue	-11.8751
Sabía	-11.8751
Vete	-11.8752
▁rise	-11.8753
▁materia	-11.8753
▁frutas	-11.8754
▁juegue	-11.8754
▁Korea	-11.8755
▁deseos	-11.8758
▁reunió	-11.8765
via	-11.8765
▁robber	-11.8768
ura	-11.8769
udging	-11.8773
▁aspirin	-11.8775
▁influence	-11.8783
▁insist	-11.8785
▁postpone	-11.8786
▁conduct	-11.8787
ármelo	-11.8789
▁Perdi	-11.879
aña	-11.8793
▁exterior	-11.8793
▁furious	-11.8793
▁fluent	-11.8794
▁revel	-11.8798
▁Dejá	-11.8799
▁bow	-11.88
▁commit	-11.88
▁orphan	-11.88
▁honeymoon	-11.88
▁telefónica	-11.88
▁Earth	-11.88
▁FBI	-11.88
▁Food	-11.88
▁Hotel	-11.88
▁Portugal	-11.88
▁Roosevelt	-11.88
▁Switzerland	-11.88
▁Toyota	-11.88
▁acudir	-11.88
▁alphabet	-11.88
▁arrival	-11.88
▁arrow	-11.88
▁campaign	-11.88
▁circle	-11.88
▁convertido	-11.88
▁coreano	-11.88
▁cultiva	-11.88
▁círculo	-11.88
▁description	-11.88
▁discount	-11.88
▁dizzy	-11.88
▁environment	-11.88
▁essential	-11.88
▁flecha	-11.88
▁forecast	-11.88
▁garaje	-11.88
▁increasing	-11.88
▁inesperado	-11.88
▁injusto	-11.88
▁inquieto	-11.88
▁jabón	-11.88
▁luxury	-11.88
▁mundial	-11.88
▁pospone	-11.88
▁predecir	-11.88
▁pudieron	-11.88
▁racket	-11.88
▁silk	-11.88
▁suicidio	-11.88
▁unconscious	-11.88
▁unlucky	-11.88
▁whisky	-11.88
▁wolf	-11.88
▁yourselves	-11.88
▁árabe	-11.88
▁July	-11.88
▁Suiza	-11.88
▁international	-11.88
▁llores	-11.88
▁millionaire	-11.88
▁unlocked	-11.88
▁conceal	-11.88
▁consigue	-11.88
▁plain	-11.88
▁Hiroshima	-11.88
▁briefcase	-11.88
▁Corea	-11.88
▁composition	-11.88
▁surprising	-11.88
▁Cookie	-11.88
▁Hilton	-11.88
▁escoba	-11.88
▁nacimiento	-11.88
▁necklace	-11.88
▁physics	-11.88
▁campaña	-11.88
▁optimistic	-11.88
▁presencia	-11.88
▁Ambas	-11.8801
▁squeak	-11.8801
▁jury	-11.8801
▁gym	-11.8801
▁pusiera	-11.8801
▁recurrir	-11.8801
▁continuación	-11.8801
▁susurr	-11.8801
▁cuero	-11.8801
▁ésa	-11.8801
▁medal	-11.8801
▁broom	-11.8801
▁figura	-11.8801
▁honey	-11.8801
▁acento	-11.8801
▁Láv	-11.8801
▁desagradable	-11.8801
▁fuga	-11.8801
Oís	-11.8801
▁shine	-11.8801
▁digging	-11.8801
▁mojado	-11.8801
▁permitió	-11.8801
▁operación	-11.8801
▁pusiste	-11.8802
▁comieron	-11.8802
▁medalla	-11.8802
▁national	-11.8802
▁grasa	-11.8802
▁interpreter	-11.8802
▁empeorando	-11.8802
▁hatred	-11.8802
▁lemon	-11.8802
▁Quíta	-11.8803
▁talentoso	-11.8803
▁rechazado	-11.8803
▁enviado	-11.8803
▁automovilístico	-11.8803
▁absolute	-11.8803
▁preocuparte	-11.8804
▁Though	-11.8804
▁Fish	-11.8804
▁princess	-11.8804
▁fake	-11.8804
▁cumplió	-11.8805
▁spicy	-11.8805
▁empezaste	-11.8805
▁volviera	-11.8806
▁struck	-11.8806
▁style	-11.8806
▁sake	-11.8806
▁recuperó	-11.8806
▁condenado	-11.8807
▁march	-11.8807
▁cambiando	-11.8807
It	-11.8807
▁probarlo	-11.8808
▁bush	-11.8808
▁soborno	-11.8808
▁actúa	-11.8808
▁alquilar	-11.8809
▁logró	-11.8809
▁buscaba	-11.8809
▁convencerlo	-11.881
▁suelto	-11.881
▁convencerle	-11.881
▁But	-11.881
▁arreglarlo	-11.881
▁desayunado	-11.881
▁Acepto	-11.8811
▁cancelar	-11.8811
▁camping	-11.8811
▁cheating	-11.8811
▁sentaron	-11.8812
▁contiene	-11.8813
▁practical	-11.8813
omúnmente	-11.8813
▁pure	-11.8814
▁disgusting	-11.8815
▁oración	-11.8815
▁below	-11.8816
▁Apaga	-11.8818
▁ensayo	-11.8818
▁hi	-11.8818
▁online	-11.8818
▁fu	-11.882
▁saludos	-11.8821
▁hilo	-11.8821
Vienes	-11.8821
▁earned	-11.8821
▁warning	-11.8822
▁firmó	-11.8823
▁searching	-11.8824
▁vacant	-11.8826
▁aspirina	-11.8826
Su	-11.8831
▁entraron	-11.8831
▁confident	-11.8832
▁cortado	-11.8832
▁caridad	-11.8832
▁Pagu	-11.8837
pparently	-11.8843
▁cambiará	-11.8844
▁recomendar	-11.8848
▁visitarme	-11.8848
▁recordó	-11.8849
▁astronaut	-11.8849
▁decisiones	-11.8849
▁aseguro	-11.885
mpecé	-11.8853
▁Centr	-11.8859
▁appreciated	-11.886
ara	-11.8863
▁secrets	-11.8864
▁encontrarlo	-11.8864
dando	-11.8865
▁populares	-11.8868
▁entering	-11.887
▁existen	-11.8871
▁operate	-11.8873
▁pasaron	-11.8874
▁bomberos	-11.8876
▁cumple	-11.8881
ily	-11.8884
▁atropell	-11.8887
▁esperamos	-11.8888
▁verdes	-11.8889
▁crops	-11.8889
▁encontrarme	-11.8894
▁Cut	-11.8896
▁export	-11.8897
▁encontrarás	-11.8905
▁interesantes	-11.8907
▁dejarte	-11.8909
▁comb	-11.8913
▁ingresos	-11.8916
▁pierdas	-11.8916
▁supplies	-11.8916
▁quema	-11.892
▁canilla	-11.8927
▁adolescentes	-11.893
▁tigers	-11.893
▁suicida	-11.8931
▁vivos	-11.8935
▁Hav	-11.8939
▁porqué	-11.8942
▁terminará	-11.8943
Do	-11.8943
▁lead	-11.8947
▁mild	-11.8954
▁vais	-11.896
▁Qui	-11.896
▁sucia	-11.8966
▁llegas	-11.8967
bla	-11.8969
gar	-11.8974
▁pides	-11.8985
per	-11.8988
▁heridos	-11.8991
nme	-11.8997
▁Pero	-11.9
▁números	-11.9
▁casaron	-11.9009
▁cast	-11.9015
jaste	-11.9026
▁ayudaré	-11.9027
▁pares	-11.9029
▁odiar	-11.9044
▁monos	-11.9046
▁precioso	-11.9053
▁falls	-11.9056
▁memorize	-11.9063
▁nación	-11.9063
▁jugará	-11.9064
▁daños	-11.9066
ezca	-11.9075
▁prisoners	-11.9083
▁reconocer	-11.9086
▁entiendes	-11.9098
▁ciudadanos	-11.9109
▁equivoca	-11.9118
▁interpret	-11.9119
▁digan	-11.9124
▁sorprender	-11.913
▁Van	-11.9135
cas	-11.9147
Come	-11.9154
▁pega	-11.9159
▁savings	-11.9165
▁negros	-11.9176
▁metas	-11.9193
tera	-11.9206
▁ab	-11.9208
▁bo	-11.9213
▁stare	-11.9215
puesto	-11.9219
ary	-11.9228
actuando	-11.9232
▁pot	-11.9239
▁Volvi	-11.9243
▁chairs	-11.9246
▁stands	-11.9266
▁memoriz	-11.9267
▁Jugar	-11.9268
▁gastar	-11.9269
▁lanza	-11.9279
▁felicit	-11.93
▁sillas	-11.9303
▁pig	-11.9304
ucho	-11.9318
vertirse	-11.9319
▁economic	-11.9353
▁flirt	-11.9357
nybody	-11.9368
▁adaptar	-11.9376
ual	-11.9377
▁elephant	-11.9379
▁hierba	-11.9379
▁tontería	-11.9379
▁block	-11.9379
▁límite	-11.9382
▁diamante	-11.9384
▁pida	-11.9385
▁cambie	-11.9386
▁rueda	-11.9388
▁rayo	-11.9388
minded	-11.939
chó	-11.9391
▁rana	-11.9392
▁cable	-11.9397
▁alimenta	-11.94
▁amanecer	-11.9401
▁Estuvi	-11.9403
▁twist	-11.9405
pó	-11.9406
▁durar	-11.9414
fic	-11.9424
ham	-11.943
▁ayudarlo	-11.9434
▁tirar	-11.9437
dad	-11.9443
▁decisions	-11.9459
▁Llamé	-11.9462
▁constant	-11.9462
▁Iremos	-11.9463
▁risks	-11.9465
▁cocin	-11.9472
▁mark	-11.9472
ite	-11.9483
▁parts	-11.9488
▁fr	-11.9494
▁evit	-11.9503
▁camp	-11.9508
▁gustar	-11.9511
▁fren	-11.9514
▁vela	-11.9514
house	-11.952
▁mezcla	-11.9523
▁palm	-11.9525
▁Viene	-11.9526
sistió	-11.9526
uesta	-11.9527
Tomás	-11.953
▁Compra	-11.9531
volvió	-11.9532
▁pasta	-11.9532
vale	-11.9533
▁Bebe	-11.9534
▁plancha	-11.9539
▁cheat	-11.9546
▁sab	-11.9546
▁Fa	-11.9548
▁trampas	-11.955
▁cloth	-11.9553
▁rescue	-11.9554
zing	-11.9556
▁reward	-11.9556
▁pianist	-11.9558
▁possibl	-11.9558
▁graduate	-11.9558
▁bake	-11.956
▁tax	-11.956
Esperaba	-11.9562
inter	-11.9563
▁conclusion	-11.9563
▁dólar	-11.9564
▁cuchara	-11.9564
▁spill	-11.9567
▁arrastr	-11.9569
housand	-11.9569
bviamente	-11.9569
▁acquaint	-11.957
▁Egypt	-11.957
▁flame	-11.957
▁Wednesday	-11.957
▁aguja	-11.957
▁ajustar	-11.957
▁alibi	-11.957
▁carbón	-11.957
▁castigo	-11.957
▁chimenea	-11.957
▁chocó	-11.957
▁combustible	-11.957
▁conmovió	-11.957
▁duermo	-11.957
▁eager	-11.957
▁económica	-11.957
▁enemiga	-11.957
▁engañe	-11.957
▁estufa	-11.957
▁excepción	-11.957
▁faucet	-11.957
▁generous	-11.957
▁homicidio	-11.957
▁julio	-11.957
▁justicia	-11.957
▁lyrics	-11.957
▁lámpara	-11.957
▁motocicleta	-11.957
▁neumático	-11.957
▁overslept	-11.957
▁paisaje	-11.957
▁portátil	-11.957
▁puerto	-11.957
▁reliable	-11.957
▁romántico	-11.957
▁semáforo	-11.957
▁shining	-11.957
▁surrounded	-11.957
▁taburete	-11.957
▁terribly	-11.957
▁traducción	-11.957
▁unhealthy	-11.957
▁veterinario	-11.957
▁victim	-11.957
▁Great	-11.957
▁charity	-11.957
▁exigi	-11.957
▁hirviendo	-11.957
▁internacional	-11.957
▁confíe	-11.957
▁empiece	-11.957
▁tecnología	-11.957
▁explique	-11.957
▁nieto	-11.957
▁semejante	-11.957
▁delegados	-11.957
▁militar	-11.957
▁nieva	-11.957
▁divirtiendo	-11.957
▁region	-11.957
▁competencia	-11.957
▁literatura	-11.957
▁cellphone	-11.957
▁soleado	-11.957
▁temptation	-11.957
▁asombroso	-11.957
▁property	-11.957
▁asistente	-11.957
▁inundación	-11.957
▁slipped	-11.957
▁score	-11.957
▁fascinante	-11.957
▁collection	-11.957
▁cubo	-11.957
▁producción	-11.957
▁convenc	-11.957
▁bunch	-11.957
▁estuviese	-11.957
▁ignorancia	-11.957
▁fascinating	-11.957
▁skinny	-11.957
▁breed	-11.957
▁Cinc	-11.957
▁perdimos	-11.957
▁shallow	-11.957
▁huelga	-11.957
▁coach	-11.957
▁defectos	-11.957
▁esperanto	-11.957
▁Abrí	-11.957
▁announced	-11.957
▁siguieron	-11.957
▁March	-11.957
▁maid	-11.9571
▁cuanta	-11.9571
▁ocasiones	-11.9571
▁amargo	-11.9571
▁Decile	-11.9571
▁desorientado	-11.9571
▁practicando	-11.9571
▁Llor	-11.9571
▁sunset	-11.9571
▁tasa	-11.9571
▁settle	-11.9571
▁ahorrando	-11.9571
▁humanidad	-11.9571
▁Latin	-11.9571
▁miserable	-11.9571
▁leather	-11.9571
▁conseguiste	-11.9572
▁bore	-11.9572
▁gimnasio	-11.9572
▁jurado	-11.9572
▁aumentando	-11.9572
▁nublado	-11.9572
▁tidy	-11.9572
▁pública	-11.9572
▁Pretend	-11.9572
▁charming	-11.9572
▁embarrassing	-11.9572
▁banca	-11.9572
▁compone	-11.9572
▁saque	-11.9572
▁mareado	-11.9572
▁coal	-11.9573
▁apurado	-11.9573
▁cuantos	-11.9573
▁saldrá	-11.9573
▁sufrió	-11.9573
▁asustada	-11.9574
▁shape	-11.9574
▁agradecerle	-11.9574
▁relieved	-11.9574
▁roommate	-11.9574
▁quejarte	-11.9574
▁charlando	-11.9574
▁Brus	-11.9574
▁rodeado	-11.9574
▁rama	-11.9575
▁máximo	-11.9575
▁approached	-11.9575
▁goose	-11.9575
▁hazlo	-11.9575
▁renunció	-11.9576
▁millonario	-11.9576
▁pulga	-11.9576
▁chores	-11.9576
▁funcionará	-11.9576
▁votaron	-11.9576
▁molestando	-11.9576
▁empujó	-11.9576
▁security	-11.9577
▁scarf	-11.9577
▁videojuegos	-11.9578
▁recovered	-11.9579
▁cerebro	-11.9579
▁presupuesto	-11.9579
▁direct	-11.9579
▁traído	-11.958
▁préstamo	-11.958
aza	-11.958
▁sentarte	-11.958
▁crió	-11.9581
▁escuchaste	-11.9581
▁clothing	-11.9581
▁pianista	-11.9582
▁llovió	-11.9582
▁perderás	-11.9582
▁reírme	-11.9583
▁dyed	-11.9583
▁entrenador	-11.9583
▁anytime	-11.9585
▁descripción	-11.9585
▁llegando	-11.9585
▁postponed	-11.9588
▁pala	-11.9589
▁drawing	-11.959
▁repeated	-11.9591
▁enseñarte	-11.9591
▁Hiciste	-11.9592
▁pensamientos	-11.9592
▁mataron	-11.9592
▁enterrado	-11.9592
▁diseño	-11.9595
▁laughs	-11.9595
▁mentí	-11.9597
▁contarle	-11.9597
▁memorizar	-11.9598
▁helpful	-11.9599
▁unfortunate	-11.96
▁mentioned	-11.9601
▁entenderlo	-11.9601
▁escuchas	-11.9603
▁oírlo	-11.9604
▁packed	-11.9604
▁stain	-11.9605
▁longest	-11.9606
▁enfermedades	-11.9608
▁crown	-11.9609
▁absurdo	-11.9612
▁Admit	-11.9612
▁tasted	-11.9615
▁brilla	-11.9615
▁durará	-11.9615
▁tocaba	-11.9617
▁opiniones	-11.9618
▁fooled	-11.9619
▁welcomed	-11.9622
▁viejas	-11.9623
▁breathing	-11.9627
▁normally	-11.9629
▁accent	-11.9629
▁autumn	-11.9629
▁gustará	-11.963
▁Mirá	-11.963
▁data	-11.9634
mu	-11.964
▁slapp	-11.9648
sistieron	-11.9651
▁escuchaba	-11.9655
▁mejorando	-11.9656
▁vete	-11.9664
▁Empiez	-11.967
▁mislead	-11.967
▁entendería	-11.9671
▁pagará	-11.9673
▁Pres	-11.9675
▁labor	-11.9678
▁escuches	-11.968
▁sorprendidos	-11.9681
▁Juga	-11.9685
▁mor	-11.969
▁prob	-11.9694
▁sobras	-11.9694
▁tools	-11.9695
▁mantuv	-11.9698
▁sew	-11.9698
▁llevado	-11.9705
▁Permíta	-11.9706
▁tomas	-11.9706
▁previo	-11.9714
▁ocurren	-11.9714
▁averigua	-11.9716
▁firma	-11.9719
▁tigres	-11.9725
▁molestes	-11.9726
▁empeorar	-11.9735
▁trabaje	-11.9738
ize	-11.9741
▁cultural	-11.9751
▁ends	-11.9752
▁eighty	-11.9754
▁alerta	-11.9757
sistencia	-11.976
▁comprendi	-11.9765
▁citizens	-11.9768
▁candles	-11.9769
▁bonitas	-11.977
▁honesty	-11.9779
▁encuentres	-11.9784
▁politicians	-11.9784
▁prisioneros	-11.9784
▁nota	-11.9786
ka	-11.9793
mate	-11.9798
▁Air	-11.9799
▁arregla	-11.98
▁mide	-11.9805
▁pequeñas	-11.9807
▁famosos	-11.9814
▁faces	-11.9815
gas	-11.9827
▁Estudia	-11.9828
▁reads	-11.9828
▁rodillas	-11.9829
▁Pagar	-11.983
▁enero	-11.9833
▁orgullosos	-11.9859
▁burns	-11.986
▁entienden	-11.9861
Si	-11.99
▁juntas	-11.99
▁answering	-11.99
▁cakes	-11.9912
▁abus	-11.9913
▁alas	-11.9917
▁mist	-11.9917
cado	-11.9922
sión	-11.9923
dded	-11.9927
▁toys	-11.993
▁Mil	-11.9933
▁hambrientos	-11.9935
ered	-11.9939
▁Hacer	-11.9941
ner	-11.9943
▁arrojar	-11.9952
▁cen	-11.9952
▁Lea	-11.9955
▁observar	-11.999
ntentó	-12.0005
▁vinieras	-12.0026
cción	-12.0027
▁pu	-12.0038
▁Anda	-12.0062
▁negoci	-12.0062
lick	-12.0065
▁esperes	-12.0081
▁recuerdos	-12.0086
▁rompe	-12.0087
▁Corre	-12.0087
▁llamara	-12.0092
▁aumenta	-12.0117
▁cuentas	-12.0121
osa	-12.0122
▁Segur	-12.0134
venge	-12.0151
▁momentos	-12.0154
▁conditions	-12.0165
eando	-12.0167
podría	-12.0173
▁acabas	-12.0175
▁comprara	-12.0177
▁sir	-12.0185
van	-12.0188
ned	-12.0191
▁hablara	-12.0192
▁volunteer	-12.0199
▁Cerr	-12.02
▁walls	-12.0208
▁junta	-12.021
▁supieras	-12.0211
▁archivo	-12.0217
▁blanket	-12.0217
recí	-12.0219
▁araña	-12.022
▁cow	-12.022
▁trick	-12.0223
▁banana	-12.0223
▁gemelo	-12.0224
▁alumno	-12.0225
▁marchar	-12.0228
▁relative	-12.0229
▁sheet	-12.023
▁Camin	-12.0233
Compra	-12.0239
▁alimento	-12.0268
▁Confi	-12.0285
▁comidas	-12.0304
▁arrives	-12.0304
bré	-12.0304
▁operar	-12.0313
▁libres	-12.032
▁oscur	-12.0323
Hablas	-12.0323
▁bu	-12.0326
▁ch	-12.0328
Deja	-12.0337
▁organ	-12.0339
▁exit	-12.0343
tara	-12.0345
▁absurd	-12.0345
▁official	-12.0348
▁registr	-12.0349
employed	-12.035
Sobre	-12.035
for	-12.035
▁blam	-12.0351
▁dedic	-12.0352
Will	-12.0354
▁period	-12.0356
made	-12.0357
nna	-12.0358
▁image	-12.0358
▁montó	-12.0359
▁ranch	-12.0365
▁pusi	-12.0369
▁recibi	-12.0374
▁pistol	-12.038
▁bark	-12.038
plica	-12.0381
▁Cu	-12.0384
▁decepciona	-12.0387
▁surrender	-12.0389
▁siguen	-12.0389
▁accomplish	-12.039
▁defeat	-12.039
▁cuán	-12.0391
▁novelist	-12.0391
▁incredibl	-12.0391
▁repetir	-12.0392
▁cuadra	-12.0393
▁caí	-12.0394
▁potato	-12.0397
▁happie	-12.0397
▁probado	-12.0397
▁aquél	-12.0398
▁estupenda	-12.04
wimming	-12.0402
▁comfort	-12.0402
▁declara	-12.0402
▁Disneyland	-12.0403
▁spoon	-12.0403
▁depart	-12.0403
▁pésima	-12.0403
▁Dormí	-12.0403
▁Egipto	-12.0403
▁February	-12.0403
▁Gobierno	-12.0403
▁Serbia	-12.0403
▁Smith	-12.0403
▁Twitter	-12.0403
▁aprecio	-12.0403
▁apuñaló	-12.0403
▁atmosphere	-12.0403
▁atmósfera	-12.0403
▁bastón	-12.0403
▁cadena	-12.0403
▁coartada	-12.0403
▁continúa	-12.0403
▁delegate	-12.0403
▁embassy	-12.0403
▁febrero	-12.0403
▁helmet	-12.0403
▁indispensable	-12.0403
▁invisible	-12.0403
▁jersey	-12.0403
▁maletero	-12.0403
▁olvidadizo	-12.0403
▁perfume	-12.0403
▁reconocí	-12.0403
▁remote	-12.0403
▁resemblance	-12.0403
▁sacerdote	-12.0403
▁scheme	-12.0403
▁solving	-12.0403
▁soñado	-12.0403
▁steak	-12.0403
▁stiff	-12.0403
▁suspicion	-12.0403
▁uncomfortable	-12.0403
▁victoria	-12.0403
▁vodka	-12.0403
▁voleibol	-12.0403
▁además	-12.0403
▁chemistry	-12.0403
▁colección	-12.0403
▁miércoles	-12.0403
▁outdoors	-12.0403
▁raqueta	-12.0403
▁statue	-12.0403
▁construction	-12.0403
▁dawn	-12.0403
▁juramento	-12.0403
▁pledge	-12.0403
▁recién	-12.0403
▁risa	-12.0403
▁prohíb	-12.0403
▁siglo	-12.0403
Empecemos	-12.0403
▁flea	-12.0403
▁pollera	-12.0403
▁región	-12.0403
▁textbook	-12.0403
▁apropiado	-12.0403
▁fifth	-12.0403
▁viniendo	-12.0403
▁cueva	-12.0403
▁hurried	-12.0403
▁petición	-12.0403
▁registradora	-12.0403
▁assistance	-12.0403
▁despegó	-12.0403
▁forzado	-12.0403
▁pudiste	-12.0403
▁tries	-12.0403
▁enojó	-12.0403
▁perdida	-12.0403
▁creciendo	-12.0403
▁Teresa	-12.0403
▁condujera	-12.0403
▁detallada	-12.0403
▁perdiste	-12.0403
▁fumo	-12.0403
omic	-12.0403
▁postura	-12.0403
▁production	-12.0403
▁presentimiento	-12.0403
▁saqué	-12.0403
rubbed	-12.0403
▁queráis	-12.0403
▁ignorance	-12.0403
▁essay	-12.0404
▁aggressive	-12.0404
▁comenzando	-12.0404
▁modales	-12.0404
▁cha	-12.0404
▁Kong	-12.0404
▁jarra	-12.0404
▁hola	-12.0404
▁Pro	-12.0404
▁downtown	-12.0404
▁empecé	-12.0404
▁concentrarme	-12.0404
▁pobreza	-12.0404
▁sucediendo	-12.0404
▁latín	-12.0404
▁tolerate	-12.0404
▁ninety	-12.0404
▁scarce	-12.0404
▁kidnapped	-12.0405
▁pride	-12.0405
▁oath	-12.0405
▁hunter	-12.0405
▁blonde	-12.0405
▁severo	-12.0405
▁frontera	-12.0405
▁contrató	-12.0405
▁secretaria	-12.0406
▁aventura	-12.0406
▁effective	-12.0406
▁ceremonia	-12.0406
▁guide	-12.0406
▁típico	-12.0406
▁corona	-12.0406
▁reality	-12.0406
▁agradecerte	-12.0407
▁talkative	-12.0407
▁parties	-12.0407
▁pace	-12.0407
▁quint	-12.0407
▁element	-12.0407
▁chew	-12.0407
▁retrasado	-12.0407
▁comprendo	-12.0408
▁solid	-12.0408
▁previsto	-12.0408
▁arruinado	-12.0408
▁jar	-12.0408
▁conciencia	-12.0409
▁dudo	-12.0409
▁estatua	-12.0409
▁engañado	-12.0409
▁castigado	-12.0409
▁intenté	-12.0409
▁relajado	-12.041
Donald	-12.041
▁cheerful	-12.041
▁chef	-12.0411
ative	-12.0411
cking	-12.0411
▁sword	-12.0412
▁plead	-12.0412
▁besando	-12.0412
▁awesome	-12.0413
▁yelling	-12.0414
▁hunger	-12.0414
▁harp	-12.0414
▁función	-12.0415
stico	-12.0415
▁state	-12.0415
▁sana	-12.0416
▁congratulated	-12.0416
▁retiró	-12.0416
▁sándwiches	-12.0417
▁lastimado	-12.0417
▁incredible	-12.0417
▁servirá	-12.0418
▁apuntes	-12.0418
▁Saca	-12.0418
▁defeated	-12.0418
▁collected	-12.0419
▁correctamente	-12.0419
▁especialmente	-12.0421
▁levantarte	-12.0421
▁sobrevivió	-12.0421
▁pido	-12.0422
▁nave	-12.0422
▁respira	-12.0422
vas	-12.0422
▁evidente	-12.0423
▁sufre	-12.0424
▁resigned	-12.0425
▁frozen	-12.0425
▁shooting	-12.0425
▁install	-12.0425
▁prayed	-12.0426
▁mientas	-12.0427
▁interrupted	-12.0429
▁importaba	-12.043
▁repairing	-12.0431
▁temas	-12.0433
▁aprovechar	-12.0433
▁Apple	-12.0436
▁advanced	-12.0436
gging	-12.0437
▁practicar	-12.0437
▁contenta	-12.0437
▁retirar	-12.0437
▁dial	-12.0439
▁matarme	-12.0439
▁Move	-12.044
▁robot	-12.0441
▁horno	-12.0442
▁pensarlo	-12.0443
▁knocking	-12.0444
▁llamaron	-12.0445
▁huérfano	-12.0445
▁cure	-12.0445
▁expenses	-12.0446
▁planeado	-12.0446
▁acompañar	-12.0447
▁vendedor	-12.0448
▁pronuncia	-12.0448
▁entendió	-12.045
▁estaciones	-12.045
▁rancho	-12.0451
▁helpless	-12.0453
▁ayudaros	-12.0453
▁landed	-12.0453
▁Huele	-12.0454
▁empezamos	-12.0456
▁litera	-12.0456
▁consideran	-12.0457
▁hamburguesas	-12.0459
▁Charle	-12.0461
▁compraría	-12.0464
▁recuperar	-12.0468
▁Pass	-12.047
▁Aprende	-12.0471
▁rollo	-12.0472
ula	-12.0475
▁sung	-12.0478
▁dresses	-12.0479
▁funcione	-12.0479
▁counting	-12.0485
▁idiotas	-12.0486
▁camel	-12.0487
▁rumores	-12.0487
▁blancos	-12.049
▁abogados	-12.049
▁Pasó	-12.049
▁consiste	-12.0492
▁Llen	-12.0493
▁theft	-12.0494
▁Yes	-12.0499
▁boxes	-12.05
▁fatal	-12.0503
▁Vari	-12.0505
▁compraron	-12.0505
▁estampillas	-12.0507
▁británicos	-12.0507
▁arrancar	-12.0518
▁armed	-12.052
▁impos	-12.0522
▁alike	-12.0522
▁probó	-12.0525
▁windy	-12.0533
▁plátanos	-12.054
▁customers	-12.054
edí	-12.0549
▁acto	-12.0552
▁ballenas	-12.0556
▁agrees	-12.0556
▁cambios	-12.0559
▁exams	-12.056
▁aboard	-12.056
▁sorprendente	-12.056
ged	-12.0565
ring	-12.0565
▁despegar	-12.0566
ace	-12.0568
▁skills	-12.0573
▁rested	-12.0574
▁preguntado	-12.058
cle	-12.0587
▁estaremos	-12.0588
V	-12.059
▁Pa	-12.0592
▁Viví	-12.0601
Desea	-12.0604
▁ruedas	-12.0605
▁Sírva	-12.0607
▁forgiven	-12.0612
con	-12.0615
▁Mc	-12.0615
▁mudar	-12.0619
▁elefantes	-12.0621
▁comments	-12.0621
▁crecer	-12.063
Han	-12.063
▁pedazos	-12.0637
▁creci	-12.0638
▁mental	-12.0639
▁pare	-12.0646
▁Aquello	-12.0648
▁cheques	-12.0654
▁relate	-12.066
ué	-12.066
▁desat	-12.0666
▁Edi	-12.0671
ally	-12.0683
▁Estaría	-12.0683
▁sucios	-12.0686
▁curtains	-12.0686
▁pinch	-12.0691
▁explica	-12.0697
▁puestos	-12.0698
▁explic	-12.0719
cá	-12.0729
▁andaba	-12.073
▁confund	-12.0739
▁phoned	-12.0764
▁antiguas	-12.0769
▁enfrentar	-12.077
itas	-12.0772
H	-12.0779
bamos	-12.0787
▁tocado	-12.0788
▁pills	-12.0794
▁wasted	-12.0794
▁hundreds	-12.0804
▁lid	-12.0813
ció	-12.0821
▁Ponl	-12.0826
▁antiguos	-12.0835
▁heridas	-12.0835
ntó	-12.0844
gir	-12.0852
▁Piensa	-12.0854
▁miré	-12.0857
▁informar	-12.0869
▁notes	-12.088
▁mix	-12.0883
ping	-12.0886
▁needle	-12.0893
▁dig	-12.0895
line	-12.0898
▁sincere	-12.09
▁aliment	-12.0911
▁riesgos	-12.0919
▁becomes	-12.0959
▁ignor	-12.0963
0,000	-12.0965
▁leía	-12.097
▁Busca	-12.0976
▁viajes	-12.0985
▁estudios	-12.0986
▁llenos	-12.099
▁honesta	-12.0996
taron	-12.0997
yeron	-12.0997
▁atrapados	-12.1003
▁compensa	-12.1004
▁provoc	-12.1011
▁exception	-12.1028
▁Levanta	-12.1036
▁bitte	-12.1052
▁stones	-12.1054
▁fina	-12.1078
▁Echa	-12.108
ack	-12.1087
eth	-12.1089
▁handy	-12.1102
▁tristes	-12.1104
▁fac	-12.1119
put	-12.1122
dores	-12.1126
▁entienda	-12.1126
▁granjero	-12.1127
▁truco	-12.1128
▁Hu	-12.1131
▁tigre	-12.1131
▁turista	-12.1133
▁bonitos	-12.1139
▁desconocido	-12.1146
▁skill	-12.1147
▁pesos	-12.1155
▁clave	-12.1155
▁moleste	-12.116
ndá	-12.1163
▁grado	-12.1165
▁Déje	-12.117
▁seguí	-12.1173
▁extend	-12.1188
ster	-12.1195
▁Disfruta	-12.1203
▁ref	-12.1204
▁cases	-12.121
▁ju	-12.1221
ltimamente	-12.1222
▁nativos	-12.1225
▁asks	-12.1249
▁Llam	-12.125
Termina	-12.1258
Recibi	-12.126
Toca	-12.126
Mañana	-12.1263
Mira	-12.1263
▁juegas	-12.1264
Vos	-12.1264
Queda	-12.1265
raw	-12.1266
▁deliver	-12.1266
▁respeta	-12.1267
talo	-12.1267
▁ancho	-12.127
0,	-12.1272
▁suits	-12.1275
▁Confí	-12.1279
ándole	-12.128
zed	-12.1285
▁Entré	-12.1288
▁vet	-12.1292
▁buscas	-12.1292
rime	-12.1293
▁yell	-12.1293
ngeles	-12.1294
▁chinos	-12.1296
▁bebí	-12.1298
▁develop	-12.1299
▁punish	-12.1299
▁destroy	-12.1299
▁crawl	-12.13
cientists	-12.13
▁aprecia	-12.1302
▁condena	-12.1305
▁recent	-12.1307
▁lamenta	-12.1308
▁abuelos	-12.1309
▁inmediata	-12.1309
▁reciente	-12.1309
▁asombr	-12.1311
▁aparenta	-12.1311
▁engaño	-12.1311
▁orgullo	-12.1311
tudents	-12.1311
▁ubica	-12.1311
▁Break	-12.1312
Entendiste	-12.1312
▁almuerza	-12.1312
▁chalk	-12.1312
▁estricto	-12.1312
▁estropeado	-12.1312
▁financiera	-12.1312
▁maravilla	-12.1312
▁minifalda	-12.1312
▁tattoo	-12.1312
▁traitor	-12.1312
caño	-12.1312
▁Admir	-12.1312
▁Berlin	-12.1312
▁Black	-12.1312
▁Columbus	-12.1312
▁Colón	-12.1312
▁Escocia	-12.1312
▁Greece	-12.1312
▁Nevó	-12.1312
▁Ocean	-12.1312
▁Scotland	-12.1312
▁Valentin	-12.1312
▁acknowledge	-12.1312
▁aclarar	-12.1312
▁aliviado	-12.1312
▁appropriate	-12.1312
▁awoke	-12.1312
▁bathtub	-12.1312
▁blouse	-12.1312
▁blusa	-12.1312
▁bufanda	-12.1312
▁cordones	-12.1312
▁diablo	-12.1312
▁dieciséis	-12.1312
▁divertimos	-12.1312
▁estricta	-12.1312
▁estupidez	-12.1312
▁fluidamente	-12.1312
▁graduó	-12.1312
▁imágenes	-12.1312
▁insecure	-12.1312
▁intenciones	-12.1312
▁locura	-12.1312
▁lógica	-12.1312
▁marrón	-12.1312
▁maíz	-12.1312
▁oigo	-12.1312
▁pausa	-12.1312
▁positive	-12.1312
▁ritmo	-12.1312
▁récord	-12.1312
▁sanguíneo	-12.1312
▁shoelaces	-12.1312
▁skating	-12.1312
▁smooth	-12.1312
▁soñar	-12.1312
▁spaghetti	-12.1312
▁starving	-12.1312
▁surgery	-12.1312
▁telefónico	-12.1312
▁terminé	-12.1312
▁trousers	-12.1312
▁tunnel	-12.1312
▁término	-12.1312
▁undressing	-12.1312
▁unpleasant	-12.1312
▁victory	-12.1312
▁worries	-12.1312
▁ópera	-12.1312
▁Cross	-12.1312
▁Grecia	-12.1312
▁curiosity	-12.1312
▁deportivo	-12.1312
▁nowadays	-12.1312
▁perezoso	-12.1312
▁sueltes	-12.1312
▁Buy	-12.1312
▁Finally	-12.1312
▁fellow	-12.1312
▁kitten	-12.1312
▁noventa	-12.1312
▁temple	-12.1312
▁traidor	-12.1312
▁backyard	-12.1312
▁fluidez	-12.1312
▁jerk	-12.1312
▁link	-12.1312
▁battery	-12.1312
▁multa	-12.1312
▁Arabic	-12.1312
▁Doctor	-12.1312
▁atractivo	-12.1312
▁esperábamos	-12.1312
▁propiedad	-12.1312
▁stirr	-12.1312
▁wolves	-12.1312
stiny	-12.1312
▁Finish	-12.1312
▁apague	-12.1312
▁lío	-12.1312
▁performance	-12.1312
▁Podía	-12.1312
▁bañera	-12.1312
▁technology	-12.1312
▁shampoo	-12.1312
▁pendiente	-12.1312
▁sorprendida	-12.1312
exican	-12.1312
▁dirige	-12.1312
▁expresión	-12.1312
▁pecho	-12.1312
▁apuesta	-12.1312
▁cabaña	-12.1312
▁túnel	-12.1312
▁cocinera	-12.1312
▁palacio	-12.1312
▁encontraba	-12.1312
▁comiera	-12.1312
▁swimmer	-12.1312
▁investigating	-12.1312
▁creature	-12.1312
▁freedom	-12.1313
▁supiste	-12.1313
▁nacier	-12.1313
▁generation	-12.1313
▁rug	-12.1313
▁fluido	-12.1313
▁suministros	-12.1313
▁agenda	-12.1313
▁canasta	-12.1313
▁housework	-12.1313
▁capítulo	-12.1313
▁cavando	-12.1313
▁Manténga	-12.1313
▁dining	-12.1313
▁acabe	-12.1313
▁complicada	-12.1313
▁freezing	-12.1313
▁inherit	-12.1313
▁relajarme	-12.1313
▁respiración	-12.1313
▁Comencemos	-12.1313
▁florero	-12.1313
▁investment	-12.1313
▁repentinamente	-12.1313
▁Hagámoslo	-12.1313
▁marzo	-12.1313
▁Disfrut	-12.1313
▁atajo	-12.1313
▁rebel	-12.1314
▁Anota	-12.1314
▁Year	-12.1314
▁pura	-12.1314
▁genuine	-12.1314
▁lloraba	-12.1314
▁baking	-12.1314
▁aviso	-12.1314
▁soltó	-12.1314
▁movió	-12.1314
▁Conseguí	-12.1314
▁exploded	-12.1314
▁Gira	-12.1314
▁disculparme	-12.1314
▁tardará	-12.1314
▁aplaudió	-12.1314
▁sentarnos	-12.1315
▁confiado	-12.1315
▁impresionante	-12.1315
▁pantalla	-12.1315
▁vidrio	-12.1315
▁invest	-12.1315
▁descuento	-12.1315
▁divirtió	-12.1315
▁joyas	-12.1315
▁ladrando	-12.1315
▁whispered	-12.1315
▁Quéde	-12.1315
▁defender	-12.1315
▁salimos	-12.1316
▁proposed	-12.1316
▁arranged	-12.1316
▁despidieron	-12.1316
▁atropellado	-12.1316
▁ruinas	-12.1316
▁aceptable	-12.1316
▁salgo	-12.1316
▁fried	-12.1317
▁ligera	-12.1317
▁panic	-12.1317
▁confiaba	-12.1317
▁Desayun	-12.1317
▁parezca	-12.1317
▁Luce	-12.1318
▁conditioner	-12.1318
▁arriesgado	-12.1318
▁trash	-12.1318
▁severe	-12.1318
▁Claro	-12.1319
▁Music	-12.1319
▁oíste	-12.1319
▁pronunciar	-12.1319
▁Aparentemente	-12.1319
▁directly	-12.1319
▁declaración	-12.132
▁fumando	-12.132
▁personaje	-12.132
▁praised	-12.132
▁acostarme	-12.1321
▁chased	-12.1322
▁responde	-12.1322
▁regularly	-12.1326
▁doscient	-12.1326
▁volunteered	-12.1326
▁dejando	-12.1327
▁cancelado	-12.1327
▁novelista	-12.1327
▁White	-12.1327
▁waved	-12.1327
▁gum	-12.1328
▁entrado	-12.1328
▁tomaste	-12.133
▁distracted	-12.133
▁Fall	-12.133
▁contenido	-12.1331
▁settled	-12.1331
▁folded	-12.1331
▁boiled	-12.1332
cendió	-12.1332
▁recuperará	-12.1333
▁coughing	-12.1333
▁yelled	-12.1334
▁matches	-12.1334
▁sinking	-12.1337
▁jumping	-12.1338
▁Texas	-12.1339
▁circunstancias	-12.1339
▁jewels	-12.1339
▁kilograms	-12.1339
▁zanahorias	-12.1339
▁section	-12.1339
▁pagan	-12.134
▁King	-12.1341
▁lavarse	-12.1345
▁espaldas	-12.1347
▁llovi	-12.1348
▁besara	-12.1348
▁mango	-12.1349
▁salía	-12.135
Entiende	-12.1351
▁caras	-12.1353
▁resfriar	-12.1354
▁logra	-12.1354
▁escucharlo	-12.1355
▁pounds	-12.1356
▁fritas	-12.1356
▁waiter	-12.1358
▁matarte	-12.136
▁canal	-12.1361
▁sides	-12.1362
▁planeaba	-12.1362
▁divorciar	-12.1362
▁fij	-12.1363
▁ponerlo	-12.1363
▁Vení	-12.1366
▁estante	-12.1367
▁Cay	-12.1367
▁nado	-12.1369
▁entendía	-12.137
▁eleva	-12.137
▁ruidosa	-12.1372
▁cuidará	-12.1373
▁consequences	-12.1374
▁leftovers	-12.1374
▁ratas	-12.1376
▁cantaba	-12.1378
▁verás	-12.1382
▁safely	-12.1383
▁Gran	-12.1383
▁pluck	-12.1386
▁decorate	-12.139
▁inusual	-12.1392
▁pastillas	-12.1392
▁secreta	-12.1392
cera	-12.1397
▁finales	-12.1398
▁paintings	-12.1399
▁Presta	-12.1403
▁include	-12.1405
▁lleguemos	-12.1408
▁lightly	-12.1408
▁vegetarianos	-12.141
▁llevarlo	-12.1412
▁sudor	-12.1413
▁shortly	-12.1414
▁falló	-12.1417
▁wire	-12.142
ómete	-12.142
▁brakes	-12.1427
▁trabajas	-12.1428
▁asco	-12.1428
▁Corta	-12.1436
▁constante	-12.1441
▁limit	-12.1449
▁bills	-12.1449
▁pron	-12.1455
▁Rein	-12.1456
▁dejase	-12.1457
▁transfer	-12.1483
▁Pi	-12.1492
Escribí	-12.1499
▁mass	-12.1499
▁protesta	-12.15
tled	-12.1504
▁seco	-12.1506
▁pila	-12.1512
▁tricks	-12.1516
▁cows	-12.1516
▁bags	-12.1518
▁tiendas	-12.1519
▁cepillar	-12.152
▁lines	-12.1523
▁Red	-12.1531
▁clo	-12.1535
▁leads	-12.1543
▁Old	-12.1563
▁arañas	-12.1568
▁conozcas	-12.157
▁quedarás	-12.1576
▁aid	-12.1576
▁escase	-12.1579
▁postal	-12.1584
▁visitas	-12.1585
▁retir	-12.1585
▁numbers	-12.1589
▁quita	-12.1593
▁east	-12.1595
▁volvía	-12.16
▁indicar	-12.1601
▁doctores	-12.1604
▁cops	-12.1609
▁desperdicia	-12.1623
▁abras	-12.1624
▁causar	-12.1627
rate	-12.164
▁mas	-12.1657
▁horne	-12.1658
▁fund	-12.1661
Esa	-12.1661
car	-12.1662
▁relaja	-12.1665
▁tra	-12.1667
▁lessons	-12.1678
▁grita	-12.1688
▁soltar	-12.1688
▁funcionan	-12.169
▁acompañ	-12.1705
▁Ayuda	-12.171
▁wan	-12.1719
▁borrachos	-12.172
ions	-12.1721
▁foods	-12.1725
▁cajas	-12.1729
▁dejará	-12.1731
▁Times	-12.1733
berg	-12.174
▁Ste	-12.1749
▁interfere	-12.176
▁buildings	-12.1767
▁fracasar	-12.1771
ial	-12.1775
▁hábitos	-12.1788
▁solicit	-12.1793
▁modera	-12.1796
▁lamentar	-12.1797
▁Leer	-12.1802
▁gal	-12.1818
▁persuadir	-12.1819
alo	-12.1819
▁Acepta	-12.1821
▁Recibi	-12.1827
▁eche	-12.1828
▁podr	-12.1829
▁sabíamos	-12.1832
▁interfer	-12.1839
▁desprecia	-12.185
▁hablarte	-12.1864
▁relacion	-12.1875
▁hombros	-12.1881
▁pela	-12.1885
▁permaneci	-12.1892
▁enfada	-12.1895
▁messages	-12.1903
▁pacientes	-12.1903
▁lograr	-12.1909
▁derram	-12.1914
▁Cuida	-12.1915
▁sl	-12.1926
▁continu	-12.1933
▁quejar	-12.194
iéramos	-12.1941
Quier	-12.1944
aga	-12.1953
▁Descubr	-12.1956
▁terremotos	-12.1974
▁atra	-12.1975
▁1,000	-12.1984
▁complains	-12.1987
▁cumpl	-12.2002
▁qui	-12.2002
rado	-12.2005
▁tira	-12.2008
▁ocult	-12.2022
▁Cruz	-12.2024
▁Ap	-12.203
Encontra	-12.203
read	-12.2033
▁ladrar	-12.2033
▁produ	-12.2051
▁loses	-12.2055
▁ascenso	-12.2063
▁atrev	-12.2067
▁alert	-12.2076
▁vegetarian	-12.2078
▁Entr	-12.2083
▁Gan	-12.2085
▁cri	-12.2092
▁Eve	-12.2093
▁boil	-12.21
▁wrap	-12.2101
▁habits	-12.2106
▁navideña	-12.2118
▁vitamin	-12.2121
▁effect	-12.2122
▁monkey	-12.2122
▁oveja	-12.2122
ísima	-12.2123
▁teenager	-12.2124
▁slice	-12.2125
▁engineer	-12.2126
▁víctima	-12.2126
▁suyos	-12.2126
▁spider	-12.2127
▁camello	-12.2129
▁beginner	-12.2129
▁ballena	-12.213
▁antique	-12.2131
▁adolescente	-12.2131
▁tiger	-12.2131
light	-12.2134
rk	-12.2134
▁horn	-12.2136
▁separado	-12.2136
▁vitamina	-12.214
▁políticas	-12.2144
▁descans	-12.2152
▁cortas	-12.216
▁Nadar	-12.2164
▁toman	-12.2178
▁zapato	-12.2178
char	-12.2191
▁envejec	-12.2201
▁groups	-12.2201
▁Terminé	-12.2204
▁industria	-12.221
▁Canta	-12.2218
▁congela	-12.2219
▁Empezar	-12.2228
▁cas	-12.223
tazo	-12.2231
▁satisfechos	-12.2239
encia	-12.2245
cómo	-12.2258
▁verdaderos	-12.2258
Llama	-12.226
Querría	-12.2261
cerró	-12.2263
Gracias	-12.2263
Ayer	-12.2263
Oh	-12.2263
Aquí	-12.2264
You	-12.2264
▁bloque	-12.2268
▁discover	-12.2269
▁acuest	-12.2273
▁aprovech	-12.2276
▁bolígrafos	-12.2278
▁apoya	-12.2279
▁rechazar	-12.228
▁agradec	-12.2281
▁superfici	-12.2288
▁celebrar	-12.2289
▁jugado	-12.2289
▁guarantee	-12.2295
▁shave	-12.2296
▁congratulate	-12.2296
▁reserve	-12.2298
▁dye	-12.2299
▁reveal	-12.2299
▁pico	-12.23
▁worker	-12.23
▁burlar	-12.2305
▁Usual	-12.2305
rale	-12.2306
▁assemble	-12.2306
ártelo	-12.2307
▁compose	-12.2309
▁hábil	-12.2309
▁tímida	-12.2309
▁measure	-12.231
▁descon	-12.2311
▁indulge	-12.2312
▁natal	-12.2312
▁circula	-12.2312
▁occur	-12.2312
▁Disney	-12.2312
nstead	-12.2312
ustria	-12.2312
▁architect	-12.2312
ealand	-12.2312
elanda	-12.2312
▁Actualmente	-12.2312
▁Argentina	-12.2312
▁August	-12.2312
▁Business	-12.2312
▁Catholic	-12.2312
▁Chopin	-12.2312
▁Darwin	-12.2312
▁Dáselo	-12.2312
▁Flash	-12.2312
▁Monroe	-12.2312
▁Napole	-12.2312
▁November	-12.2312
▁Okinawa	-12.2312
▁Pacific	-12.2312
▁Pacífico	-12.2312
▁Sapporo	-12.2312
▁Sentémonos	-12.2312
▁Shinjuku	-12.2312
▁Turkey	-12.2312
▁Verdaderamente	-12.2312
▁aficionado	-12.2312
▁agresivo	-12.2312
▁alivio	-12.2312
▁almacén	-12.2312
▁alternative	-12.2312
▁arquitecto	-12.2312
▁asqueroso	-12.2312
▁asustó	-12.2312
▁attorney	-12.2312
▁barefoot	-12.2312
▁bloom	-12.2312
▁buzón	-12.2312
▁castaño	-12.2312
▁century	-12.2312
▁ceremony	-12.2312
▁champion	-12.2312
▁chemical	-12.2312
▁cicatriz	-12.2312
▁claridad	-12.2312
▁commercial	-12.2312
▁conocida	-12.2312
▁curioso	-12.2312
▁declared	-12.2312
▁desafortunado	-12.2312
▁desafío	-12.2312
▁dismissed	-12.2312
▁engagement	-12.2312
▁estacionamiento	-12.2312
▁etiqueta	-12.2312
▁filosofía	-12.2312
▁fotógrafo	-12.2312
▁generoso	-12.2312
▁globo	-12.2312
▁grandparents	-12.2312
▁identical	-12.2312
▁improving	-12.2312
▁interview	-12.2312
▁kanji	-12.2312
▁koala	-12.2312
▁laguna	-12.2312
▁laundry	-12.2312
▁llámame	-12.2312
▁magnífica	-12.2312
▁mahjong	-12.2312
▁mischievous	-12.2312
▁nevada	-12.2312
▁niñito	-12.2312
▁omelet	-12.2312
▁overcoat	-12.2312
▁oysters	-12.2312
▁physical	-12.2312
▁plástico	-12.2312
▁promoted	-12.2312
▁rabia	-12.2312
▁rastro	-12.2312
▁resaca	-12.2312
▁response	-12.2312
▁semestre	-12.2312
▁shade	-12.2312
▁simply	-12.2312
▁sostenía	-12.2312
▁stifle	-12.2312
▁templo	-12.2312
▁tractor	-12.2312
▁translator	-12.2312
▁travieso	-12.2312
▁unmarried	-12.2312
▁whining	-12.2312
▁zumo	-12.2312
▁Georg	-12.2312
▁amateur	-12.2312
▁blog	-12.2312
▁female	-12.2312
▁hangover	-12.2312
▁literature	-12.2312
▁malgaste	-12.2312
▁niega	-12.2312
▁splash	-12.2312
▁surgeon	-12.2312
▁zero	-12.2312
▁Adonde	-12.2312
▁agrado	-12.2312
▁defendant	-12.2312
▁paranoico	-12.2312
▁paranoid	-12.2312
▁pedimos	-12.2312
▁sixteen	-12.2312
▁Éra	-12.2312
▁Junt	-12.2312
▁contagious	-12.2312
▁entrevista	-12.2312
▁plazo	-12.2312
▁Wow	-12.2312
▁identidad	-12.2312
▁recipe	-12.2312
▁trial	-12.2312
▁venture	-12.2312
▁prevenir	-12.2312
▁reproductor	-12.2312
▁University	-12.2312
▁excursión	-12.2312
▁patético	-12.2312
▁plaza	-12.2312
▁receta	-12.2312
▁sonrieron	-12.2312
▁Biwa	-12.2312
▁abriera	-12.2312
▁symbol	-12.2312
▁equipment	-12.2312
▁Atrap	-12.2312
▁Translat	-12.2312
▁balloon	-12.2312
▁fantastic	-12.2312
▁mailbox	-12.2312
▁Brazilian	-12.2312
▁poverty	-12.2312
▁software	-12.2312
▁tolerar	-12.2312
▁gorra	-12.2312
▁fax	-12.2312
▁morder	-12.2312
▁mentirosa	-12.2312
▁refund	-12.2312
▁sweep	-12.2312
▁closing	-12.2312
▁espada	-12.2312
▁giró	-12.2312
▁neat	-12.2312
▁combine	-12.2312
▁espía	-12.2312
▁fascinated	-12.2312
▁tumor	-12.2312
▁flush	-12.2312
▁sufriendo	-12.2312
▁Turquía	-12.2312
▁Class	-12.2312
▁engordado	-12.2312
▁Volvamos	-12.2312
▁explor	-12.2312
▁aliado	-12.2312
▁privada	-12.2312
▁sintieron	-12.2312
▁rompí	-12.2313
▁Perdona	-12.2313
▁huir	-12.2313
▁Obviamente	-12.2313
▁sentencia	-12.2313
▁compro	-12.2313
▁factura	-12.2313
▁pub	-12.2313
▁diploma	-12.2313
▁assist	-12.2313
▁demora	-12.2313
▁shovel	-12.2313
▁crew	-12.2313
▁campus	-12.2313
▁obligación	-12.2313
▁venganza	-12.2313
Eh	-12.2313
▁Gold	-12.2313
▁humiliated	-12.2313
▁palace	-12.2313
▁existencia	-12.2313
▁poderoso	-12.2314
▁chatting	-12.2314
▁expression	-12.2314
▁reluctantly	-12.2314
▁accidentally	-12.2314
▁leyera	-12.2314
▁necessity	-12.2314
▁sympathy	-12.2314
▁mask	-12.2314
▁grites	-12.2314
▁applauded	-12.2314
▁invitaste	-12.2314
▁tropical	-12.2314
▁frequently	-12.2314
▁adquir	-12.2314
▁entusiasmado	-12.2314
▁personalidad	-12.2314
▁ilusión	-12.2314
▁terrified	-12.2315
▁trace	-12.2315
▁olla	-12.2315
▁relief	-12.2315
▁photographer	-12.2315
▁perdonado	-12.2315
▁reconozco	-12.2315
▁hook	-12.2315
▁observó	-12.2315
▁sediento	-12.2316
▁chest	-12.2316
Podrá	-12.2316
▁tirado	-12.2316
▁tomatoes	-12.2316
▁preguntes	-12.2317
▁billion	-12.2317
▁north	-12.2317
▁wandered	-12.2317
▁rendirse	-12.2317
▁vendré	-12.2317
▁ordenada	-12.2318
▁cuidadosa	-12.2318
▁sixty	-12.2318
▁gallo	-12.2318
▁connected	-12.2318
▁suavemente	-12.2319
▁approaching	-12.2319
▁severely	-12.2319
▁mudarse	-12.2319
▁golden	-12.232
▁tortured	-12.232
▁volviste	-12.2321
▁pintando	-12.2321
▁animó	-12.2321
▁occupied	-12.2321
▁entendieron	-12.2322
▁casé	-12.2322
▁Salgamos	-12.2322
▁molestarte	-12.2322
▁pensás	-12.2322
▁curry	-12.2323
▁lastimarte	-12.2323
▁contributed	-12.2323
▁apropiada	-12.2324
▁tiza	-12.2324
▁pegado	-12.2324
▁habilidades	-12.2324
Are	-12.2325
▁recado	-12.2325
▁adventure	-12.2325
▁struggled	-12.2325
▁despedirme	-12.2325
▁revealed	-12.2325
▁offended	-12.2325
▁created	-12.2325
▁negotiate	-12.2326
▁mueve	-12.2326
▁chewing	-12.2326
▁señales	-12.2327
▁familiarizado	-12.2327
▁shaved	-12.2328
▁acordarme	-12.2328
▁prime	-12.2328
▁comparado	-12.2328
▁esperá	-12.2328
▁vivimos	-12.2329
▁carrots	-12.2329
▁hopeless	-12.233
▁Angeles	-12.233
▁cenó	-12.2331
▁Run	-12.2331
▁envi	-12.2332
▁Comamos	-12.2332
▁pidiera	-12.2332
más	-12.2333
▁rellenar	-12.2333
▁Teach	-12.2334
▁guardado	-12.2335
▁slightly	-12.2335
▁culparte	-12.2336
▁Six	-12.2337
▁hesitated	-12.2338
▁preguntarme	-12.2338
▁tightly	-12.2338
▁portón	-12.234
▁interrupting	-12.2341
▁útiles	-12.2342
▁Jesus	-12.2342
▁discovery	-12.2343
▁Tenga	-12.2343
ugiero	-12.2344
cos	-12.2344
▁considerada	-12.2345
▁acceptable	-12.2345
▁insultó	-12.2346
▁Marte	-12.2346
▁utter	-12.2349
▁Burn	-12.2349
▁tank	-12.2349
▁fold	-12.2351
cula	-12.2352
▁ordenadores	-12.2353
▁impacto	-12.2354
▁agente	-12.2356
▁escalado	-12.2356
▁adoptar	-12.2357
▁abrazar	-12.2359
▁acerques	-12.2361
▁Part	-12.2364
▁colgar	-12.2364
▁correctly	-12.2366
▁Adivina	-12.2367
▁arrestó	-12.2368
▁completed	-12.2368
▁fro	-12.237
nzaron	-12.237
▁veamos	-12.2372
▁sip	-12.2373
▁capa	-12.2373
▁gradual	-12.2374
▁registro	-12.2378
▁oscurecie	-12.2379
▁revisar	-12.2381
▁spy	-12.2381
▁fuertemente	-12.2384
▁hablaste	-12.2384
▁desmayar	-12.2387
▁corr	-12.2388
▁prender	-12.2388
▁esperanzas	-12.2394
▁grupos	-12.2394
▁respected	-12.2394
▁ages	-12.2395
▁mejorado	-12.2395
▁Result	-12.2396
▁preguntaré	-12.2396
▁vendrás	-12.2397
▁liberar	-12.2398
▁driven	-12.2398
▁frutos	-12.24
▁muevas	-12.24
▁separa	-12.2402
▁cantado	-12.2404
▁corredor	-12.2404
▁papa	-12.2417
▁discuta	-12.2417
▁medi	-12.2417
▁urge	-12.2419
▁huesos	-12.242
▁frenos	-12.2422
▁mueren	-12.2423
▁Hola	-12.2424
▁pinturas	-12.2433
▁médicos	-12.2435
▁bears	-12.2436
▁apunta	-12.2437
▁manga	-12.2438
▁remarks	-12.244
▁huellas	-12.244
▁uniforms	-12.2441
▁Ford	-12.2445
▁aproxima	-12.2456
▁owed	-12.2458
▁palma	-12.2458
▁apuros	-12.2459
▁adivinar	-12.2465
Viniste	-12.2465
▁oculta	-12.2467
▁veremos	-12.2468
▁encantaba	-12.2468
▁risky	-12.2471
▁nicer	-12.2471
▁insulto	-12.2477
▁catching	-12.2478
▁col	-12.2489
▁delito	-12.2494
▁beginners	-12.2499
▁separados	-12.2499
▁vegetarians	-12.25
▁empezará	-12.25
▁buscado	-12.2502
aj	-12.2509
▁telephoned	-12.2518
▁torn	-12.2521
▁hab	-12.2523
▁pin	-12.2523
ities	-12.2525
▁breaks	-12.2532
▁pedía	-12.2532
▁entrega	-12.2534
▁states	-12.2535
▁duermen	-12.2538
▁aterroriza	-12.2539
▁realiza	-12.254
▁sneeze	-12.2544
▁relatives	-12.2545
▁Drive	-12.2549
ssed	-12.255
▁Count	-12.2558
▁cambies	-12.2559
▁rayos	-12.2559
▁equivocas	-12.2559
▁captur	-12.2579
▁cruza	-12.2581
▁incorrect	-12.2593
▁exp	-12.2598
▁Llegas	-12.2622
▁reforma	-12.2622
▁jugu	-12.2633
▁Ganar	-12.2645
▁verlos	-12.2648
▁kn	-12.2654
▁customs	-12.2659
▁enamorados	-12.267
▁confi	-12.2674
▁shows	-12.2676
▁sow	-12.2697
ika	-12.2698
▁mejillas	-12.27
▁deudas	-12.27
▁encogió	-12.2723
▁Mars	-12.2737
▁directions	-12.274
term	-12.2777
▁app	-12.2778
▁cheeks	-12.2781
ether	-12.2784
▁pizzas	-12.2791
▁chi	-12.2792
▁quemé	-12.2795
▁cal	-12.28
▁aguanta	-12.2801
▁cerdos	-12.2801
▁gotea	-12.2804
cio	-12.2805
▁unió	-12.2807
anes	-12.2813
▁absorb	-12.2814
ash	-12.2834
▁ponen	-12.2841
▁Iba	-12.2845
arios	-12.285
▁temor	-12.2853
▁estudiara	-12.2868
hanging	-12.2871
▁verse	-12.2874
▁critic	-12.2875
▁Traduc	-12.289
▁diseases	-12.2904
▁Cha	-12.2905
▁sentences	-12.2913
table	-12.2916
▁contentos	-12.2916
▁billetes	-12.2925
Empezamos	-12.2928
▁Corr	-12.2934
▁incluye	-12.2936
▁casamos	-12.2937
shed	-12.294
ments	-12.2941
lor	-12.2965
▁servicios	-12.2966
▁ventas	-12.2966
▁Bi	-12.2976
▁Lu	-12.2979
▁Termine	-12.299
▁hu	-12.2992
▁castigar	-12.3
▁Coc	-12.3001
zca	-12.3006
▁trueno	-12.3008
omo	-12.3021
▁serie	-12.3022
▁objetivos	-12.3029
▁casara	-12.3034
▁meetings	-12.3039
ío	-12.3041
atch	-12.3041
▁Super	-12.3047
▁largos	-12.3049
10,000	-12.3049
▁vacías	-12.305
▁trabaj	-12.3054
dicated	-12.3082
▁cl	-12.3096
▁acusa	-12.3097
▁seconds	-12.3099
udo	-12.3103
▁Gu	-12.3109
▁sub	-12.3111
▁gi	-12.3112
▁sweets	-12.3113
▁earthquakes	-12.3113
▁criar	-12.3114
▁orbit	-12.3119
▁acts	-12.312
▁Encuentr	-12.313
ap	-12.3138
jos	-12.3142
rust	-12.315
done	-12.3159
board	-12.3162
irse	-12.3168
▁rumors	-12.3171
Las	-12.3172
▁mayo	-12.3185
▁caros	-12.3185
▁lata	-12.3202
jamos	-12.3203
clined	-12.3209
▁derrota	-12.321
▁Ser	-12.3211
▁cloud	-12.3215
▁dividi	-12.3216
▁inglesa	-12.3229
▁candidato	-12.323
▁mosca	-12.323
▁ingeniero	-12.3233
▁vehículo	-12.3233
▁Ayudé	-12.3233
▁cer	-12.3235
▁abeja	-12.3235
▁affair	-12.3237
▁desire	-12.3238
ison	-12.3238
▁plátano	-12.3241
▁supplie	-12.3242
▁ingreso	-12.3242
▁pierda	-12.3243
▁customer	-12.3244
▁degree	-12.3245
▁grade	-12.3247
▁vegetable	-12.3248
▁item	-12.3248
▁elbow	-12.3256
▁esperas	-12.3261
▁Unido	-12.3265
tendré	-12.3267
▁diente	-12.3273
primió	-12.3273
▁Mari	-12.3278
bel	-12.3278
land	-12.3281
▁vuelves	-12.3283
▁líneas	-12.3283
▁bodas	-12.3283
▁nervios	-12.3283
▁atrae	-12.3287
▁sobra	-12.3289
ablemente	-12.3294
▁cubr	-12.3299
▁lea	-12.3301
▁presion	-12.331
Estuviste	-12.3311
▁nu	-12.3312
▁fuel	-12.3314
▁curar	-12.3315
▁recomiend	-12.332
▁incendios	-12.3326
▁ricas	-12.3326
low	-12.3326
▁Much	-12.3327
resisti	-12.3332
▁Ke	-12.3337
▁adopta	-12.3339
▁industrial	-12.3342
▁crow	-12.3358
▁comporta	-12.336
ísimas	-12.3364
pressed	-12.3366
Juega	-12.337
▁impact	-12.3373
▁estúpidos	-12.3373
ili	-12.3374
puedo	-12.3374
what	-12.3374
Hoy	-12.3374
▁zapat	-12.3375
▁demandar	-12.3377
▁recover	-12.3379
▁adivina	-12.3382
Quería	-12.3386
▁Dur	-12.3391
▁relativ	-12.3391
▁afecta	-12.3395
▁hablará	-12.3397
▁sujet	-12.3406
ddle	-12.3407
▁remove	-12.3408
▁rendir	-12.3409
▁chain	-12.341
▁recompensa	-12.3411
uck	-12.3411
▁confuse	-12.3412
▁checks	-12.3412
▁bug	-12.3412
▁valid	-12.3413
▁fabrica	-12.3413
▁elect	-12.3413
alth	-12.3414
▁implica	-12.3414
nic	-12.3416
▁branch	-12.3416
▁cazador	-12.3416
▁levantas	-12.3416
▁nacional	-12.3416
▁horizon	-12.3417
▁immediate	-12.3417
árselo	-12.342
▁threat	-12.3421
▁Happ	-12.3422
▁mow	-12.3422
▁pulse	-12.3422
▁cigar	-12.3422
▁process	-12.3423
uatro	-12.3423
▁Vietnam	-12.3423
▁blank	-12.3423
▁arruinar	-12.3423
▁advertis	-12.3423
▁envidia	-12.3423
▁gossip	-12.3423
Estudias	-12.3423
▁Añad	-12.3423
▁Berlín	-12.3423
▁Coffee	-12.3423
▁Contact	-12.3423
▁Extraño	-12.3423
▁Kyushu	-12.3423
▁Nowadays	-12.3423
▁Portuguese	-12.3423
▁Sinceramente	-12.3423
▁Street	-12.3423
▁Study	-12.3423
▁aliviar	-12.3423
▁amistoso	-12.3423
▁appeal	-12.3423
▁aprobación	-12.3423
▁arbusto	-12.3423
▁asignatura	-12.3423
▁atómica	-12.3423
▁autobuses	-12.3423
▁awkward	-12.3423
▁baboon	-12.3423
▁biología	-12.3423
▁bride	-12.3423
▁cajero	-12.3423
▁cambié	-12.3423
▁campamento	-12.3423
▁carácter	-12.3423
▁cerezo	-12.3423
▁chimney	-12.3423
▁cliff	-12.3423
▁clumsy	-12.3423
▁compliment	-12.3423
▁concierne	-12.3423
▁crítica	-12.3423
▁demonio	-12.3423
▁destination	-12.3423
▁devastated	-12.3423
▁dumped	-12.3423
▁eligier	-12.3423
▁enciende	-12.3423
▁equilibrio	-12.3423
▁escándalo	-12.3423
▁espagueti	-12.3423
▁estadística	-12.3423
▁eternidad	-12.3423
▁exaggerate	-12.3423
▁feroz	-12.3423
▁flauta	-12.3423
▁grammatical	-12.3423
▁idéntico	-12.3423
▁incumbe	-12.3423
▁injusta	-12.3423
▁insensitive	-12.3423
▁inteligencia	-12.3423
▁journey	-12.3423
▁maletín	-12.3423
▁maquillaje	-12.3423
▁misunderstood	-12.3423
▁muriera	-12.3423
▁mysterious	-12.3423
▁nephew	-12.3423
▁niñez	-12.3423
▁ostras	-12.3423
▁overweight	-12.3423
▁patatas	-12.3423
▁peluquería	-12.3423
▁pollution	-12.3423
▁postcard	-12.3423
▁propina	-12.3423
▁práctico	-12.3423
▁pulso	-12.3423
▁póquer	-12.3423
▁realizó	-12.3423
▁satisfactory	-12.3423
▁shadow	-12.3423
▁shelter	-12.3423
▁shortcut	-12.3423
▁siblings	-12.3423
▁sobrino	-12.3423
▁solitario	-12.3423
▁suegra	-12.3423
▁swept	-12.3423
▁símbolo	-12.3423
▁tatuaje	-12.3423
▁thunder	-12.3423
▁tropas	-12.3423
▁universitaria	-12.3423
▁volcano	-12.3423
▁válido	-12.3423
▁Orange	-12.3423
▁Thai	-12.3423
▁aviones	-12.3423
▁bancarrota	-12.3423
▁cerradura	-12.3423
▁cueste	-12.3423
▁decís	-12.3423
▁exige	-12.3423
▁extent	-12.3423
▁malvado	-12.3423
▁seatbelt	-12.3423
▁tercio	-12.3423
▁thread	-12.3423
▁tobillo	-12.3423
▁associate	-12.3423
▁cinta	-12.3423
▁esquiando	-12.3423
▁manteca	-12.3423
▁parecida	-12.3423
▁pediste	-12.3423
▁profundidad	-12.3423
▁semester	-12.3423
firiendo	-12.3423
▁cease	-12.3423
▁conservative	-12.3423
▁sneak	-12.3423
▁typewriter	-12.3423
▁ésos	-12.3423
▁ankle	-12.3423
▁biology	-12.3423
▁diversión	-12.3423
▁toothache	-12.3423
▁atasco	-12.3423
▁camarero	-12.3423
▁cristal	-12.3423
▁qualified	-12.3423
▁confesar	-12.3423
▁mentiste	-12.3423
▁pateó	-12.3423
▁clapped	-12.3423
▁elderly	-12.3423
▁melted	-12.3423
▁roca	-12.3423
▁yawn	-12.3423
▁aferr	-12.3423
▁intervino	-12.3423
▁Respet	-12.3423
▁comunicación	-12.3423
▁profit	-12.3423
▁malgasta	-12.3423
▁snack	-12.3423
▁spinach	-12.3423
▁temblaba	-12.3423
▁perrito	-12.3423
▁crezca	-12.3423
▁hiking	-12.3423
▁plastic	-12.3423
▁revolución	-12.3423
▁banjo	-12.3423
▁corresponde	-12.3423
▁volcán	-12.3423
▁apesta	-12.3423
▁abrazó	-12.3423
▁despach	-12.3423
▁mortal	-12.3423
▁Madre	-12.3423
▁generación	-12.3424
▁guitarist	-12.3424
▁gentle	-12.3424
▁seafood	-12.3424
▁atleta	-12.3424
▁direcciones	-12.3424
▁respondido	-12.3424
▁quédate	-12.3424
▁shaking	-12.3424
▁snore	-12.3424
▁desesperado	-12.3424
▁activo	-12.3424
▁Déjanos	-12.3424
▁Detén	-12.3424
▁Cow	-12.3424
▁asiáticos	-12.3424
▁complacer	-12.3424
▁unsure	-12.3424
▁majority	-12.3424
▁statement	-12.3424
▁expose	-12.3424
▁Roll	-12.3424
▁redacción	-12.3424
▁tornillo	-12.3424
▁esencial	-12.3424
▁cattle	-12.3424
▁Almorzamos	-12.3424
▁numerosa	-12.3424
▁colgando	-12.3424
▁permitted	-12.3424
▁interese	-12.3424
▁dolía	-12.3424
▁prometiste	-12.3424
▁comimos	-12.3424
▁meditando	-12.3424
▁descubrimiento	-12.3424
▁pearl	-12.3424
▁heavier	-12.3424
▁mojada	-12.3424
▁puro	-12.3424
▁ho	-12.3424
▁temía	-12.3424
▁fiable	-12.3424
▁download	-12.3425
▁obligation	-12.3425
▁mandé	-12.3425
▁dibujó	-12.3425
▁recto	-12.3425
▁depriv	-12.3425
▁azar	-12.3425
occer	-12.3425
▁conclusión	-12.3425
▁consideration	-12.3425
▁reparado	-12.3425
▁opponent	-12.3425
▁trasero	-12.3425
▁loyal	-12.3425
▁amarga	-12.3425
▁conducido	-12.3426
▁doloroso	-12.3426
▁hometown	-12.3426
▁atravesar	-12.3426
▁sacaste	-12.3426
▁vision	-12.3426
▁Remo	-12.3426
▁objection	-12.3426
▁Apresúrate	-12.3426
▁gritando	-12.3426
▁revelar	-12.3426
▁identif	-12.3426
▁costoso	-12.3426
▁melod	-12.3426
▁Enseñ	-12.3426
▁doubtful	-12.3426
▁disgustado	-12.3427
▁Continúa	-12.3427
▁Jesús	-12.3427
▁cachorro	-12.3427
▁cirujano	-12.3427
▁muerde	-12.3427
▁Fíj	-12.3427
▁intervened	-12.3427
▁realista	-12.3427
▁ahogarse	-12.3427
▁disculparse	-12.3427
▁rapidly	-12.3427
▁toast	-12.3427
▁defensa	-12.3427
▁daña	-12.3428
▁suene	-12.3428
▁darkness	-12.3428
▁choque	-12.3428
▁nevará	-12.3428
▁terminaste	-12.3428
▁Llegaré	-12.3428
▁sentimos	-12.3428
▁calentador	-12.3429
▁established	-12.3429
▁capturado	-12.3429
▁slower	-12.3429
▁subestimes	-12.3429
▁horizonte	-12.3429
▁sintiendo	-12.343
▁copies	-12.343
▁afilado	-12.343
▁ahogó	-12.343
▁matando	-12.343
▁patada	-12.343
omas	-12.3431
▁actualmente	-12.3431
▁comprando	-12.3431
nock	-12.3431
▁regañó	-12.3431
▁regularmente	-12.3431
▁misled	-12.3432
▁lawyers	-12.3432
▁deprisa	-12.3432
▁regresará	-12.3432
▁votó	-12.3432
▁former	-12.3432
▁ci	-12.3432
▁careless	-12.3433
▁descalzo	-12.3433
▁despe	-12.3433
▁derrotado	-12.3433
▁amused	-12.3434
▁divertirse	-12.3434
▁ciertamente	-12.3434
▁spoiled	-12.3435
▁stunning	-12.3435
spare	-12.3436
▁bebas	-12.3436
▁culparía	-12.3436
▁tumbado	-12.3436
▁apagado	-12.3437
▁filete	-12.3437
▁apagaron	-12.3438
▁ji	-12.3439
▁arreglado	-12.3439
▁limited	-12.3439
▁díga	-12.3439
▁delivered	-12.3439
▁rompa	-12.344
▁escaparon	-12.344
▁perform	-12.3441
▁examined	-12.3441
▁besaron	-12.3441
▁celosa	-12.3442
▁soportarlo	-12.3442
▁adelanta	-12.3443
▁stingy	-12.3443
▁criminales	-12.3444
▁Long	-12.3444
▁politely	-12.3444
▁dibujar	-12.3444
▁youngest	-12.3444
▁colgado	-12.3444
▁ruidoso	-12.3445
▁sorbo	-12.3445
▁alegrará	-12.3445
▁Existe	-12.3445
▁lavado	-12.3446
▁blowing	-12.3446
▁mago	-12.3446
▁alejado	-12.3446
▁criticize	-12.3447
▁athlete	-12.3447
▁confirmed	-12.3447
▁taxista	-12.3448
▁disgusted	-12.3449
▁Import	-12.345
▁traditional	-12.345
cakes	-12.3451
▁Sing	-12.3451
▁saldr	-12.3452
▁posibilidades	-12.3452
▁aceptaría	-12.3452
▁coge	-12.3452
▁referr	-12.3454
▁satisfactoria	-12.3454
▁principales	-12.3455
▁behaved	-12.3456
▁refieres	-12.3457
▁tortugas	-12.3457
▁exacta	-12.3458
▁culpando	-12.3461
▁Use	-12.3461
▁prestarme	-12.3462
▁señaló	-12.3462
▁carbono	-12.3465
▁lesion	-12.3465
▁hipo	-12.3467
▁organized	-12.3467
Is	-12.3467
▁Apart	-12.3467
▁enseñado	-12.3467
▁Cometí	-12.3468
▁tame	-12.3468
▁Duerm	-12.3471
▁menores	-12.3472
▁hablemos	-12.3473
ador	-12.3475
▁marco	-12.3475
▁tool	-12.3476
▁errónea	-12.3476
▁marineros	-12.3478
▁sailors	-12.3479
▁tubo	-12.3479
▁escondidas	-12.3479
▁calmado	-12.348
ire	-12.3481
▁creerle	-12.3484
jera	-12.3485
▁landing	-12.3485
▁cared	-12.3487
▁bombarde	-12.3489
▁tomate	-12.3491
hone	-12.3492
ak	-12.3492
▁aceptad	-12.3493
▁maní	-12.3495
▁Fire	-12.3497
▁supongo	-12.3497
▁jueguen	-12.3498
enzo	-12.3499
▁palomas	-12.35
▁interrumpas	-12.3501
▁shirts	-12.3503
▁patiently	-12.3504
▁Car	-12.3504
jó	-12.3505
▁comunicar	-12.3506
▁amaré	-12.3507
▁Consegui	-12.3507
▁quebró	-12.3512
▁visitarte	-12.3514
▁differently	-12.3515
▁escribirle	-12.3516
▁tenista	-12.3524
▁reca	-12.3527
▁congelado	-12.3527
▁respects	-12.3529
▁mienten	-12.3532
▁jog	-12.3536
▁exceptional	-12.3542
▁distraer	-12.3544
▁meditar	-12.3547
▁rat	-12.355
▁manda	-12.3551
▁Norte	-12.3554
▁hitch	-12.3561
▁mall	-12.3561
▁falt	-12.3563
▁exprimi	-12.3563
▁mates	-12.3564
▁tooth	-12.357
▁load	-12.3575
▁alter	-12.3576
▁fing	-12.3577
lena	-12.3581
▁oyes	-12.3586
iversidad	-12.3587
▁ganara	-12.3594
▁costear	-12.3596
▁Clean	-12.3597
▁coman	-12.36
▁dejarme	-12.3607
▁Aliment	-12.361
▁Indian	-12.3612
▁tomates	-12.3613
▁Agarra	-12.3623
lia	-12.3628
fundió	-12.3631
▁spiders	-12.3634
▁vitamins	-12.3634
▁antiques	-12.3635
▁vitaminas	-12.3636
▁Fre	-12.3638
▁trabajamos	-12.3638
▁ira	-12.3639
▁escrib	-12.3642
▁resolv	-12.3653
▁granjeros	-12.3656
▁trucos	-12.3656
▁sentirá	-12.366
▁abrirá	-12.3666
ogen	-12.3672
▁basta	-12.3674
▁notable	-12.3675
▁robots	-12.3678
▁sheets	-12.3678
▁taxis	-12.3679
▁enti	-12.368
▁Toca	-12.3686
▁ban	-12.3688
ford	-12.3695
▁hog	-12.3713
▁consultar	-12.3714
▁gradua	-12.3714
aper	-12.3716
▁reuni	-12.3721
▁principiantes	-12.3723
▁oídos	-12.3725
▁arresto	-12.3737
▁cepilla	-12.374
▁weighs	-12.3745
▁voluntarios	-12.3747
▁provocar	-12.375
▁considerable	-12.3754
▁doctora	-12.3756
▁freed	-12.3762
cimiento	-12.3765
▁empeora	-12.3771
▁policías	-12.3772
▁extendi	-12.3777
▁Noel	-12.3782
▁drain	-12.3787
nged	-12.3794
▁tanque	-12.3794
▁demands	-12.38
▁hablaron	-12.3818
▁imitate	-12.3822
▁parara	-12.3823
000	-12.3823
▁vari	-12.3824
▁Oye	-12.383
▁equivocados	-12.3832
▁cómodos	-12.3843
▁cru	-12.385
▁harán	-12.3858
▁medicamentos	-12.386
▁cabras	-12.386
▁sordos	-12.386
▁gallinas	-12.386
tua	-12.3869
ko	-12.3869
▁triunf	-12.3872
▁plates	-12.3881
▁files	-12.3883
ige	-12.389
▁Limpi	-12.3893
portable	-12.3898
▁regrets	-12.3901
▁ruins	-12.3902
ramos	-12.3905
ario	-12.3912
▁owned	-12.3926
▁pil	-12.3928
▁vengan	-12.3939
▁Ti	-12.3939
gle	-12.3941
osen	-12.3954
idos	-12.3958
▁puertas	-12.3964
▁Regresa	-12.3969
▁avanz	-12.3973
▁canto	-12.3977
▁Llame	-12.3977
▁apresurar	-12.398
▁logr	-12.3984
ian	-12.3989
▁leas	-12.3997
▁Leo	-12.3999
▁absorbe	-12.4002
ders	-12.4004
▁Sur	-12.4006
▁criminals	-12.4022
▁gr	-12.4028
cked	-12.4029
▁admite	-12.4029
ándolo	-12.4029
▁Cuidar	-12.4038
▁voices	-12.4038
▁copi	-12.404
▁smiles	-12.4041
émoslo	-12.4042
▁remembering	-12.4054
▁laws	-12.4067
▁Hága	-12.4069
▁Dejar	-12.4073
▁vibra	-12.4081
ase	-12.4083
▁deberá	-12.4089
▁boletos	-12.4091
▁vendrías	-12.4091
▁rec	-12.4094
▁ne	-12.4095
▁pararon	-12.4097
elt	-12.4131
uch	-12.4136
▁ayudá	-12.4137
▁afortunados	-12.4138
▁manej	-12.4141
▁sec	-12.4142
▁cercanos	-12.4159
▁intentions	-12.4162
ino	-12.4168
▁Limpia	-12.417
▁inventar	-12.417
▁regresa	-12.4183
▁Pone	-12.4184
W	-12.4208
regó	-12.4211
▁partidos	-12.4225
▁conduces	-12.4233
aster	-12.4236
▁copias	-12.424
▁skirts	-12.4257
▁cobra	-12.4259
▁pele	-12.4267
▁cuidadosos	-12.4281
lif	-12.4282
tained	-12.4282
▁elevado	-12.4283
▁bot	-12.4289
▁reform	-12.4294
▁bites	-12.4297
riendo	-12.4297
▁theirs	-12.4298
▁tr	-12.4299
ches	-12.43
▁elegi	-12.4304
▁bro	-12.4305
▁fo	-12.4313
ificó	-12.4317
▁opinions	-12.432
▁Abandon	-12.4325
▁muñecas	-12.4328
ache	-12.4334
nado	-12.4364
▁consulta	-12.4374
▁Quita	-12.4375
oner	-12.4377
▁moments	-12.4388
▁consumi	-12.4403
▁Prueb	-12.4404
▁Paga	-12.4407
▁weekends	-12.4413
▁vendid	-12.4426
▁Responde	-12.4431
▁fare	-12.4434
Vendrá	-12.4435
▁Ri	-12.4435
▁rob	-12.4437
▁aves	-12.4439
▁Quedé	-12.444
ittle	-12.4443
scal	-12.4456
▁Accident	-12.4456
▁wa	-12.4465
nimals	-12.4472
bul	-12.4473
▁idiots	-12.4474
▁oje	-12.4479
▁valioso	-12.4479
▁movimiento	-12.4479
▁cristiano	-12.4483
▁string	-12.4483
▁distinto	-12.4484
▁docena	-12.4484
▁Christian	-12.4485
▁mascota	-12.4485
▁peligrosos	-12.4486
▁cuento	-12.4487
▁disparo	-12.4487
▁apuro	-12.449
▁escuche	-12.4492
▁oreja	-12.4495
▁consecuencia	-12.4495
▁verdura	-12.4496
▁pista	-12.4497
▁nube	-12.4497
▁preocupe	-12.4498
tick	-12.4504
tiende	-12.4505
▁impress	-12.4509
blando	-12.451
▁comemos	-12.4522
▁codo	-12.4523
lin	-12.4525
▁ahorr	-12.4531
▁sock	-12.4533
▁reparti	-12.4539
ction	-12.4557
bimos	-12.4564
▁estima	-12.4572
▁postul	-12.4572
▁mon	-12.4584
▁Manda	-12.4588
tenga	-12.4589
rected	-12.4597
▁male	-12.4599
ij	-12.4601
Pasas	-12.4602
▁masa	-12.4602
▁queríamos	-12.461
▁oye	-12.4613
uela	-12.4619
▁frases	-12.462
confident	-12.4622
Entonces	-12.4623
▁pague	-12.4623
Oye	-12.4623
Alguno	-12.4624
May	-12.4624
puede	-12.4624
quién	-12.4624
Voy	-12.4624
▁combina	-12.4625
phone	-12.4625
▁Civil	-12.4625
▁carbon	-12.4627
pagué	-12.4628
10.	-12.463
▁Bur	-12.4631
▁costo	-12.4632
estás	-12.4632
Déjame	-12.4632
▁apt	-12.4633
▁agent	-12.4637
mbled	-12.4642
▁agradecer	-12.4642
ended	-12.4645
Estará	-12.4646
dijo	-12.4647
▁Cocin	-12.4648
▁racist	-12.4648
▁annoy	-12.4649
▁mile	-12.465
▁aparece	-12.4651
▁ceder	-12.4656
▁compete	-12.4657
▁pl	-12.4657
▁describir	-12.4657
▁deceive	-12.4658
▁modest	-12.4658
▁Stat	-12.4658
▁stretch	-12.466
▁focus	-12.466
▁spoil	-12.466
▁offend	-12.4661
▁betray	-12.4661
▁freak	-12.4661
▁cabin	-12.4662
▁magnet	-12.4663
▁regar	-12.4663
▁frances	-12.4665
▁Segui	-12.4665
▁concentr	-12.4665
▁ingredient	-12.4666
▁accu	-12.4667
▁subestim	-12.4667
▁chaval	-12.4667
▁sharpen	-12.4669
▁compani	-12.4669
▁cheer	-12.467
▁numb	-12.4671
▁plena	-12.4671
▁sucedie	-12.4671
▁murmur	-12.4672
cience	-12.4672
▁manteng	-12.4672
▁create	-12.4672
ventually	-12.4672
hower	-12.4672
▁inclina	-12.4672
raffic	-12.4673
▁Honest	-12.4673
▁anticipa	-12.4673
▁inferior	-12.4673
▁tendenc	-12.4673
▁knit	-12.4673
▁react	-12.4673
▁slave	-12.4673
▁cacahu	-12.4673
spiérta	-12.4673
athematics	-12.4673
abbits	-12.4673
▁envíe	-12.4673
▁exhilarat	-12.4673
▁acomod	-12.4673
▁differ	-12.4673
▁fundamental	-12.4673
▁gramatical	-12.4673
▁obsolet	-12.4673
▁ridícula	-12.4673
▁temporal	-12.4673
▁tempt	-12.4673
Conocé	-12.4673
lmorcé	-12.4673
▁Además	-12.4673
▁Beethoven	-12.4673
▁Consult	-12.4673
▁December	-12.4673
▁Dutch	-12.4673
▁Einstein	-12.4673
▁Embassy	-12.4673
▁Language	-12.4673
▁Madrid	-12.4673
▁Nagano	-12.4673
▁Nagoya	-12.4673
▁Nintendo	-12.4673
▁Nixon	-12.4673
▁OVNI	-12.4673
▁Posiblemente	-12.4673
▁Recientemente	-12.4673
▁Shibuya	-12.4673
▁Shinano	-12.4673
▁Sospech	-12.4673
▁Strange	-12.4673
▁Tailandia	-12.4673
▁Thursday	-12.4673
▁Titanic	-12.4673
▁aburrimiento	-12.4673
▁alemanes	-12.4673
▁amistosa	-12.4673
▁aprenda	-12.4673
▁arrancó	-12.4673
▁automático	-12.4673
▁bikini	-12.4673
▁blunt	-12.4673
▁bunk	-12.4673
▁cadáver	-12.4673
▁cafeteria	-12.4673
▁calcetín	-12.4673
▁camiseta	-12.4673
▁cardíaco	-12.4673
▁cariño	-12.4673
▁cementerio	-12.4673
▁champú	-12.4673
▁chapter	-12.4673
▁chatarra	-12.4673
▁cintura	-12.4673
▁comience	-12.4673
▁conocés	-12.4673
▁contradict	-12.4673
▁crítico	-12.4673
▁cycling	-12.4673
▁cántaros	-12.4673
▁delfines	-12.4673
▁descartar	-12.4673
▁desconcertado	-12.4673
▁desnuda	-12.4673
▁despistado	-12.4673
▁destruida	-12.4673
▁diplomática	-12.4673
▁doorknob	-12.4673
▁enormous	-12.4673
▁envidio	-12.4673
▁esclavitud	-12.4673
▁espacial	-12.4673
▁explotó	-12.4673
▁firewood	-12.4673
▁forbidden	-12.4673
▁fractur	-12.4673
▁gambling	-12.4673
▁gloomy	-12.4673
▁guitarrista	-12.4673
▁haunted	-12.4673
▁hobbies	-12.4673
▁impresionar	-12.4673
▁incurable	-12.4673
▁irresponsable	-12.4673
▁jarrón	-12.4673
▁jueves	-12.4673
▁juventud	-12.4673
▁mariposa	-12.4673
▁ministro	-12.4673
▁monedero	-12.4673
▁monstruo	-12.4673
▁muelle	-12.4673
▁muñeco	-12.4673
▁narices	-12.4673
▁naughty	-12.4673
▁negative	-12.4673
▁negativo	-12.4673
▁neglect	-12.4673
▁niñita	-12.4673
▁nocturno	-12.4673
▁ovni	-12.4673
▁pathetic	-12.4673
▁peluquero	-12.4673
▁pertenencias	-12.4673
▁pilchas	-12.4673
▁pochoclo	-12.4673
▁policies	-12.4673
▁preocupo	-12.4673
▁privacy	-12.4673
▁probabilidad	-12.4673
▁proceso	-12.4673
▁prosper	-12.4673
▁pulsar	-12.4673
▁recibo	-12.4673
▁reconsider	-12.4673
▁respetuoso	-12.4673
▁revolution	-12.4673
▁ribbon	-12.4673
▁rumbo	-12.4673
▁sauce	-12.4673
▁sidewalk	-12.4673
▁sleeve	-12.4673
▁snuggle	-12.4673
▁sobresaliente	-12.4673
▁sobrina	-12.4673
▁stroke	-12.4673
▁supply	-12.4673
▁testamento	-12.4673
▁thieves	-12.4673
▁toneladas	-12.4673
▁translating	-12.4673
▁tuviese	-12.4673
▁título	-12.4673
▁unnecessary	-12.4673
▁valiosa	-12.4673
▁vanidoso	-12.4673
▁vaqueros	-12.4673
▁virtud	-12.4673
▁virtue	-12.4673
▁voces	-12.4673
▁withdrew	-12.4673
▁Holanda	-12.4673
▁advertencia	-12.4673
▁apretar	-12.4673
▁atascado	-12.4673
▁confront	-12.4673
▁erigi	-12.4673
▁escondas	-12.4673
▁fósforo	-12.4673
▁grandpa	-12.4673
▁ileso	-12.4673
▁inseparable	-12.4673
▁intelligence	-12.4673
▁internet	-12.4673
▁natación	-12.4673
▁penicil	-12.4673
▁repisa	-12.4673
▁sharing	-12.4673
▁tequila	-12.4673
▁uneasy	-12.4673
▁unwilling	-12.4673
▁Green	-12.4673
▁Obama	-12.4673
▁blink	-12.4673
▁encaja	-12.4673
▁nasty	-12.4673
▁oiga	-12.4673
▁origen	-12.4673
▁waist	-12.4673
▁Feder	-12.4673
▁agricultura	-12.4673
▁automatically	-12.4673
▁calculadora	-12.4673
▁palillos	-12.4673
▁tradición	-12.4673
▁destinad	-12.4673
▁jewelry	-12.4673
értelo	-12.4673
▁Thailand	-12.4673
▁accurate	-12.4673
▁amenazó	-12.4673
▁centim	-12.4673
▁delicate	-12.4673
▁departure	-12.4673
▁máscara	-12.4673
▁ninja	-12.4673
▁tromb	-12.4673
▁juzgue	-12.4673
▁monster	-12.4673
▁muralla	-12.4673
▁surface	-12.4673
▁espantoso	-12.4673
▁Croa	-12.4673
▁algodón	-12.4673
▁refugiados	-12.4673
▁rutina	-12.4673
▁tejiendo	-12.4673
▁dinosaurio	-12.4673
▁escondí	-12.4673
▁iPod	-12.4673
▁lipstick	-12.4673
▁memories	-12.4673
▁rational	-12.4673
▁turtles	-12.4673
▁ficción	-12.4673
▁huracán	-12.4673
▁consciencia	-12.4673
▁dental	-12.4673
▁fuéramos	-12.4673
▁sector	-12.4673
▁workaholic	-12.4673
▁griega	-12.4673
▁entorno	-12.4673
▁flojo	-12.4673
▁loving	-12.4673
▁descuidado	-12.4673
▁invención	-12.4673
▁merezco	-12.4673
▁niego	-12.4673
▁Vigil	-12.4673
▁creative	-12.4673
▁Islam	-12.4673
▁clue	-12.4673
▁tremble	-12.4673
▁Drop	-12.4673
▁percat	-12.4673
▁griego	-12.4674
▁sostiene	-12.4674
▁traté	-12.4674
▁abrazo	-12.4674
▁strawberries	-12.4674
▁ocurriendo	-12.4674
▁Milk	-12.4674
▁estallar	-12.4674
▁nacionalidad	-12.4674
▁eliminar	-12.4674
▁obtuve	-12.4674
▁Hope	-12.4674
▁calculator	-12.4674
▁Pruébate	-12.4674
▁consciousness	-12.4674
▁hacés	-12.4674
▁exhibition	-12.4674
▁agradecimiento	-12.4674
▁automáticamente	-12.4674
▁activa	-12.4674
▁connection	-12.4674
▁almorzado	-12.4674
▁knitting	-12.4674
▁guiso	-12.4674
▁numero	-12.4674
▁creés	-12.4674
▁salesman	-12.4674
▁Luck	-12.4674
▁curb	-12.4674
▁Recoge	-12.4674
▁agosto	-12.4674
▁context	-12.4674
eliz	-12.4674
▁construyeron	-12.4674
▁estudié	-12.4674
▁sunlight	-12.4674
▁cupboard	-12.4674
▁conversando	-12.4674
▁bombones	-12.4674
▁govern	-12.4674
▁Step	-12.4674
▁rebelde	-12.4674
▁aplicación	-12.4674
▁estableci	-12.4674
▁deadline	-12.4674
▁instalar	-12.4674
▁ballet	-12.4674
▁hervir	-12.4674
▁murmurando	-12.4675
▁reap	-12.4675
▁motion	-12.4675
uego	-12.4675
▁attic	-12.4675
▁preocupaciones	-12.4675
▁existence	-12.4675
▁distingue	-12.4675
▁pronunciation	-12.4675
▁caramelo	-12.4675
▁partner	-12.4675
▁Ciertamente	-12.4675
▁perlas	-12.4675
▁title	-12.4675
▁trasera	-12.4675
▁relajarse	-12.4675
▁cruce	-12.4675
▁Gast	-12.4675
▁community	-12.4676
▁chairman	-12.4676
semeja	-12.4676
▁sobrevivieron	-12.4676
▁critical	-12.4676
▁moderno	-12.4676
▁transmit	-12.4676
▁dependable	-12.4676
▁interrumpió	-12.4676
▁trade	-12.4676
Ven	-12.4676
inició	-12.4677
▁mantendrá	-12.4677
▁motivado	-12.4677
▁flock	-12.4677
▁beef	-12.4677
▁niece	-12.4677
▁liado	-12.4677
▁Adelante	-12.4677
▁alfabeto	-12.4677
▁seventy	-12.4677
▁furiosa	-12.4677
▁feriado	-12.4678
▁daily	-12.4678
▁policemen	-12.4678
▁disparado	-12.4678
UU	-12.4678
▁luchando	-12.4678
▁Uso	-12.4678
▁preso	-12.4678
▁helada	-12.4679
▁artificiales	-12.4679
▁bañando	-12.4679
▁fracasado	-12.4679
▁hip	-12.4679
▁fuss	-12.4679
▁Nik	-12.4679
▁temporary	-12.4679
▁prediction	-12.468
▁voyage	-12.468
▁carné	-12.468
▁lazie	-12.468
▁cepillo	-12.468
▁salvado	-12.468
▁firmemente	-12.468
▁versión	-12.4681
▁ocurrirá	-12.4681
▁indignado	-12.4681
▁manual	-12.4681
▁mantel	-12.4681
▁Dinos	-12.4681
dney	-12.4681
▁rodeos	-12.4682
▁pescando	-12.4682
▁version	-12.4682
▁mandado	-12.4682
▁costosa	-12.4682
▁Cold	-12.4682
elieve	-12.4682
▁Intent	-12.4683
▁robé	-12.4683
▁Llevar	-12.4683
▁gata	-12.4683
▁costaría	-12.4684
▁click	-12.4685
▁signal	-12.4685
▁fabricado	-12.4685
▁ruego	-12.4685
▁Llegará	-12.4685
▁EE	-12.4685
▁estudie	-12.4686
▁observe	-12.4686
▁focused	-12.4686
▁corporal	-12.4686
▁Hacé	-12.4687
▁makeup	-12.4687
▁acostarte	-12.4689
▁fantástico	-12.4689
▁afterwards	-12.4689
▁Comenc	-12.4689
▁caída	-12.469
▁counter	-12.469
▁querrá	-12.469
▁sugiero	-12.469
▁delgada	-12.469
▁fastest	-12.469
▁ruta	-12.4691
▁Supu	-12.4691
▁presentarme	-12.4691
▁flute	-12.4692
▁absurda	-12.4692
▁navegar	-12.4693
▁accomplished	-12.4693
▁invité	-12.4693
▁visitarnos	-12.4694
▁sillón	-12.4694
▁corría	-12.4695
▁enfadarse	-12.4695
▁criticized	-12.4696
▁ajo	-12.4696
▁Cook	-12.4696
▁reserved	-12.4696
▁Perdimos	-12.4697
▁besarte	-12.4697
bérmelo	-12.4698
▁racista	-12.4698
▁evitarlo	-12.4701
▁varía	-12.4701
▁moverse	-12.4702
▁protegerte	-12.4702
▁perdonaré	-12.4704
▁superficial	-12.4704
▁Llévate	-12.4704
▁onions	-12.4706
▁Póngase	-12.4707
▁darker	-12.4708
▁pacientemente	-12.4708
▁desprecio	-12.4708
▁recog	-12.4708
▁vuelan	-12.4708
▁funcionando	-12.4708
▁brillaba	-12.4711
▁quedaste	-12.4711
▁Bajo	-12.4713
▁tape	-12.4713
▁enlace	-12.4713
▁molestado	-12.4714
gradecería	-12.4714
▁ironing	-12.4715
▁visado	-12.4716
▁lifted	-12.4718
▁costado	-12.4718
▁cuidarte	-12.4718
▁pasteles	-12.4721
▁conflicto	-12.4723
rying	-12.4724
▁salgamos	-12.4726
▁terminamos	-12.4727
vious	-12.4728
▁hail	-12.4729
▁maintain	-12.4729
▁encontraremos	-12.4732
▁terriblemente	-12.4733
▁llamarlo	-12.4733
▁discute	-12.4734
▁pagaron	-12.4735
▁runner	-12.4736
▁llegaremos	-12.4736
▁cacahuetes	-12.4736
▁Bear	-12.4737
▁obeyed	-12.4739
▁poli	-12.4741
ple	-12.4742
▁wealthy	-12.4742
▁terminaron	-12.4743
▁explicaré	-12.4745
▁usarlo	-12.4745
▁periodo	-12.4746
Espera	-12.4746
▁relaxing	-12.4746
▁nadador	-12.4747
▁recupere	-12.475
▁exacto	-12.4759
isen	-12.4761
▁galletitas	-12.4761
▁sábanas	-12.4761
▁colegas	-12.4761
▁llamarte	-12.4761
going	-12.4762
▁tango	-12.4762
▁alza	-12.4763
▁diferenciar	-12.4764
▁ganaría	-12.4765
▁divid	-12.4766
▁observado	-12.4769
proxima	-12.4771
▁violento	-12.4772
▁armada	-12.4774
illo	-12.4778
▁pino	-12.4779
▁Describ	-12.4781
▁discussing	-12.4784
abe	-12.4785
▁detiene	-12.4787
vida	-12.4788
▁preocupar	-12.4788
▁goma	-12.4788
▁libras	-12.4788
▁monta	-12.4791
▁pararme	-12.4793
▁llevé	-12.4793
▁jugaban	-12.4797
▁ganará	-12.4798
▁invento	-12.4799
ición	-12.4801
▁dormidos	-12.4803
▁lees	-12.4808
▁Canal	-12.4808
▁seguiré	-12.4815
▁bones	-12.482
▁heating	-12.4827
▁familiares	-12.4828
▁levantan	-12.483
▁dejarle	-12.483
▁mudo	-12.4832
stó	-12.4832
hea	-12.4834
▁vean	-12.4834
▁encontraría	-12.4835
▁confundid	-12.4837
▁parientes	-12.4838
▁Comienz	-12.4839
▁mol	-12.4839
▁provoca	-12.4846
▁pegar	-12.4847
▁gray	-12.4848
▁ayudaron	-12.4853
▁reported	-12.4854
▁competente	-12.4855
▁coast	-12.4856
tenido	-12.486
▁Levant	-12.4863
▁cuentos	-12.4863
▁disparos	-12.4863
▁pagaré	-12.4865
▁triple	-12.487
▁camisas	-12.4877
oru	-12.4886
aid	-12.4887
▁affairs	-12.4888
▁pap	-12.4893
▁fáciles	-12.4896
▁fra	-12.4908
▁halla	-12.4914
▁víctimas	-12.4914
▁pos	-12.4919
fashioned	-12.4923
Devuélveme	-12.4924
▁Lava	-12.4926
▁supera	-12.4927
▁limits	-12.4932
▁Estar	-12.4934
▁chatte	-12.4937
▁Terminar	-12.4938
▁entiendas	-12.4939
tivos	-12.494
▁Comprendí	-12.4943
▁reía	-12.496
▁esperaré	-12.4963
▁blankets	-12.4965
▁archivos	-12.4965
▁ending	-12.4967
fully	-12.4971
▁arriesga	-12.4979
▁hoteles	-12.498
yendo	-12.4983
▁marks	-12.4988
by	-12.499
▁diamantes	-12.4991
▁cables	-12.4992
ientos	-12.4995
▁Encontr	-12.4998
▁tube	-12.4998
▁acord	-12.5013
▁goats	-12.5017
▁acos	-12.5022
▁sn	-12.5027
▁enterar	-12.5041
▁cur	-12.5041
▁mosquitos	-12.5043
▁receiv	-12.5045
▁arregle	-12.5048
tors	-12.505
Who	-12.5055
▁salty	-12.5059
▁ayudase	-12.506
▁ache	-12.5067
▁brains	-12.5069
▁sabrás	-12.5069
▁coste	-12.5076
jones	-12.5078
Escuchas	-12.508
▁baj	-12.5089
vá	-12.5097
▁proporcionar	-12.5098
▁picky	-12.51
▁atrac	-12.5109
▁sacrifice	-12.5119
▁serlo	-12.5119
▁troubles	-12.5122
▁desorden	-12.5124
entro	-12.5126
▁k	-12.5127
▁ayuden	-12.513
▁morirá	-12.5131
▁destaca	-12.5137
▁conserva	-12.5138
▁negociar	-12.5142
▁Control	-12.5144
▁detesta	-12.5146
▁copas	-12.5146
▁Comparti	-12.5148
▁Ho	-12.5155
▁strip	-12.5155
▁castiga	-12.5166
▁afeita	-12.5169
▁conseguirá	-12.517
▁disponibles	-12.5173
▁parecidos	-12.5173
▁asegura	-12.5174
legó	-12.5186
▁desear	-12.5187
▁hum	-12.5189
▁vencer	-12.519
parked	-12.5197
▁abusa	-12.5198
▁debts	-12.52
▁limpiara	-12.5211
sible	-12.5213
lip	-12.5216
▁bridges	-12.5229
▁Salg	-12.5235
▁humillad	-12.5244
▁limpie	-12.5249
▁esperan	-12.5261
antes	-12.5277
ona	-12.5284
▁travels	-12.5286
▁expresa	-12.5294
▁training	-12.5296
▁represent	-12.5299
▁fiestas	-12.5299
▁produces	-12.5299
▁imports	-12.531
ates	-12.5328
▁aspectos	-12.5332
▁confirmar	-12.5333
▁intent	-12.5344
▁impu	-12.5349
rolled	-12.5349
torio	-12.535
▁interests	-12.5361
▁besado	-12.5362
▁ordenar	-12.5363
▁investiga	-12.5372
▁representa	-12.5372
▁Ah	-12.5383
▁sigues	-12.5386
▁goals	-12.5386
▁apresur	-12.5393
▁empe	-12.5393
wed	-12.54
▁ignora	-12.5401
▁maltrat	-12.5405
egro	-12.5412
▁aun	-12.5413
▁garantiza	-12.5415
▁cuestionar	-12.5419
iré	-12.5424
▁aspir	-12.543
▁im	-12.5434
▁faults	-12.544
▁doors	-12.5446
▁materials	-12.5458
▁fa	-12.5459
irte	-12.5464
▁aconseja	-12.547
▁intentas	-12.5472
tely	-12.5474
chu	-12.5474
▁costar	-12.5477
vando	-12.5487
▁abiertos	-12.5494
xed	-12.5498
▁escapa	-12.5512
▁Nation	-12.5524
▁forth	-12.5524
J	-12.553
▁manten	-12.5533
▁indicate	-12.5536
▁chocolates	-12.5548
▁trans	-12.5548
itos	-12.5548
▁limita	-12.557
ático	-12.5573
▁afueras	-12.5575
▁mensajes	-12.5575
▁faltan	-12.5589
▁Australian	-12.5593
val	-12.56
ark	-12.5612
▁Vivir	-12.5617
▁barri	-12.5629
▁tomara	-12.5651
▁Bra	-12.5655
▁blancas	-12.5658
▁caballeros	-12.5658
▁holes	-12.5658
▁Logr	-12.5663
▁fondos	-12.567
▁Nosotr	-12.5672
ondas	-12.5678
▁inso	-12.5678
puso	-12.5679
gué	-12.5702
preció	-12.5703
▁bombs	-12.5705
▁celebr	-12.5705
night	-12.5706
▁forms	-12.571
▁raises	-12.5715
▁mina	-12.5723
▁Work	-12.5727
icen	-12.5731
Deb	-12.5738
▁altas	-12.574
▁Arm	-12.5743
▁coro	-12.5743
▁gu	-12.5743
▁salva	-12.5748
stén	-12.5749
▁console	-12.5751
▁Suda	-12.5755
▁reí	-12.5759
▁rescatar	-12.5765
▁Lé	-12.5771
Bebes	-12.5776
▁dolls	-12.5796
▁flights	-12.5797
▁mereces	-12.5797
▁uniform	-12.5801
▁distin	-12.581
▁añadi	-12.5811
▁misa	-12.5821
▁burla	-12.5821
▁basa	-12.5821
▁puntos	-12.5829
▁enfrenta	-12.5835
▁Cen	-12.5836
▁Abo	-12.5841
fortunate	-12.5842
▁Permít	-12.5844
like	-12.5845
ai	-12.5846
meter	-12.5846
▁exists	-12.5849
▁ships	-12.585
▁Cam	-12.5857
▁Enc	-12.5862
▁mejore	-12.5869
▁tierras	-12.5881
▁encarg	-12.589
▁hack	-12.5899
▁pal	-12.59
eño	-12.5908
▁anuncio	-12.5908
▁avance	-12.5908
▁candidate	-12.5909
▁observa	-12.591
▁liberado	-12.591
▁graciosa	-12.5911
▁levante	-12.5912
▁lavarropa	-12.5914
bló	-12.5915
▁pariente	-12.5917
▁huella	-12.5918
▁remark	-12.5919
▁brake	-12.5919
▁estampilla	-12.592
▁includ	-12.5921
▁crop	-12.5922
▁peanut	-12.5923
▁británico	-12.5924
▁mueble	-12.5925
▁clavo	-12.5929
lways	-12.5933
▁panda	-12.5934
tiene	-12.5936
▁formar	-12.5937
▁pregunt	-12.5941
▁encontrará	-12.5942
▁Odia	-12.5947
▁milla	-12.595
▁Oig	-12.5957
▁atender	-12.5958
▁estornud	-12.596
▁crí	-12.5964
ebra	-12.5964
tendió	-12.5965
▁tin	-12.598
▁lip	-12.5982
▁cantantes	-12.5995
▁sentís	-12.5998
▁singers	-12.6
▁exhibi	-12.6002
podrías	-12.6003
▁transporte	-12.6004
▁Cambi	-12.6009
▁instant	-12.6012
▁sigh	-12.6012
▁contesta	-12.6014
▁Star	-12.6015
iguieron	-12.6028
▁calculat	-12.603
▁resfri	-12.6033
▁aprueb	-12.6038
▁irrelevant	-12.6038
hand	-12.604
▁du	-12.6043
▁viví	-12.6043
U	-12.6044
▁escabull	-12.6046
Buen	-12.6048
▁acaban	-12.6049
flexible	-12.6049
Hola	-12.605
ulated	-12.605
▁respir	-12.605
▁traig	-12.6051
successful	-12.6051
Fue	-12.6052
skirt	-12.6052
minute	-12.6052
Thank	-12.6052
▁cerradas	-12.6052
Había	-12.6052
write	-12.6052
▁compulsiv	-12.6053
Oj	-12.6053
▁hoyo	-12.6053
Mi	-12.6053
saw	-12.6054
▁Vuestr	-12.6054
cile	-12.6057
vino	-12.6057
▁gene	-12.6061
▁tí	-12.6063
▁tradition	-12.6066
▁instal	-12.6068
fit	-12.6068
▁necessar	-12.6072
▁valle	-12.6072
Vosotr	-12.6075
▁Imagin	-12.6076
▁entendi	-12.6078
▁plea	-12.6081
▁navega	-12.6081
▁encontraré	-12.6084
▁socio	-12.6084
▁disguise	-12.6086
▁involve	-12.6087
▁afila	-12.6089
▁struggle	-12.6089
▁fascina	-12.6089
▁contribute	-12.6091
utter	-12.6092
▁indigna	-12.6093
▁wink	-12.6093
▁Contra	-12.6094
▁traductor	-12.6094
▁artificial	-12.6095
▁mastica	-12.6095
▁swor	-12.6097
▁interrumpir	-12.6098
▁adecuada	-12.6099
struyó	-12.6099
▁chase	-12.61
ptim	-12.61
▁US	-12.61
▁central	-12.61
▁empac	-12.61
▁logic	-12.6101
cript	-12.6101
▁Big	-12.6101
▁opone	-12.6101
▁calendar	-12.6101
▁separar	-12.6101
fríe	-12.6101
▁futbol	-12.6102
▁reflect	-12.6102
nvité	-12.6102
lueve	-12.6102
▁Alexand	-12.6102
▁chantaje	-12.6102
óxido	-12.6102
▁Airport	-12.6102
▁Apunta	-12.6102
▁Cuídate	-12.6102
▁DNA	-12.6102
▁Examine	-12.6102
▁Express	-12.6102
▁Levánta	-12.6102
▁Muéstre	-12.6102
▁Netherlands	-12.6102
▁Nochebuena	-12.6102
▁Obviously	-12.6102
▁Promise	-12.6102
▁Relájate	-12.6102
▁Repentinamente	-12.6102
▁Tráiga	-12.6102
▁Valentín	-12.6102
▁ahorita	-12.6102
▁ambiente	-12.6102
▁apoyes	-12.6102
▁archaeologist	-12.6102
▁asesinó	-12.6102
▁astronomía	-12.6102
▁attribute	-12.6102
▁babysitter	-12.6102
▁banquero	-12.6102
▁bargain	-12.6102
▁batteries	-12.6102
▁bulb	-12.6102
▁calefacción	-12.6102
▁calurosa	-12.6102
▁catálogo	-12.6102
▁cenizas	-12.6102
▁chofer	-12.6102
▁chopsticks	-12.6102
▁cirugía	-12.6102
▁comestibles	-12.6102
▁conducción	-12.6102
▁confidencial	-12.6102
▁cotton	-12.6102
▁cradle	-12.6102
▁decepción	-12.6102
▁democracia	-12.6102
▁descifr	-12.6102
▁devorado	-12.6102
▁devuelto	-12.6102
▁dictionaries	-12.6102
▁diligent	-12.6102
▁dishonest	-12.6102
▁divertiste	-12.6102
▁duties	-12.6102
▁efficient	-12.6102
▁elevó	-12.6102
▁embajador	-12.6102
▁emoción	-12.6102
▁encantó	-12.6102
▁encerrado	-12.6102
▁entendemos	-12.6102
▁entusiasmo	-12.6102
▁equivoqué	-12.6102
▁esperándote	-12.6102
▁estrelló	-12.6102
▁estupideces	-12.6102
▁exactitud	-12.6102
▁expliqué	-12.6102
▁fabuloso	-12.6102
▁flies	-12.6102
▁flipp	-12.6102
▁fountain	-12.6102
▁fregadero	-12.6102
▁garlic	-12.6102
▁hiciéramos	-12.6102
▁hidrógeno	-12.6102
▁hierve	-12.6102
▁hurricane	-12.6102
▁hígado	-12.6102
▁industry	-12.6102
▁infarto	-12.6102
▁inhabitants	-12.6102
▁inspired	-12.6102
▁inversión	-12.6102
▁irresponsible	-12.6102
▁italiana	-12.6102
▁jungle	-12.6102
▁lastimé	-12.6102
▁lechuga	-12.6102
▁lettuce	-12.6102
▁limón	-12.6102
▁mankind	-12.6102
▁nacido	-12.6102
▁nocturna	-12.6102
▁palomitas	-12.6102
▁panadería	-12.6102
▁peculiar	-12.6102
▁perfección	-12.6102
▁pickpocket	-12.6102
▁portugués	-12.6102
▁promising	-12.6102
▁psiquiatra	-12.6102
▁pulmón	-12.6102
▁questionnaire	-12.6102
▁rebaja	-12.6102
▁receipt	-12.6102
▁recibe	-12.6102
▁romántica	-12.6102
▁sartén	-12.6102
▁satellite	-12.6102
▁satisfacer	-12.6102
▁satélite	-12.6102
▁scandal	-12.6102
▁signature	-12.6102
▁slim	-12.6102
▁slump	-12.6102
▁snoring	-12.6102
▁stadium	-12.6102
▁stranded	-12.6102
▁stream	-12.6102
▁sunbathing	-12.6102
▁survivor	-12.6102
▁sólida	-12.6102
▁sótano	-12.6102
▁telescope	-12.6102
▁telescopio	-12.6102
▁temperamento	-12.6102
▁tournament	-12.6102
▁tripulación	-12.6102
▁troops	-12.6102
▁tropez	-12.6102
▁vacuum	-12.6102
▁veinticinco	-12.6102
▁vergonzoso	-12.6102
▁vuelvo	-12.6102
▁wisdom	-12.6102
▁yield	-12.6102
▁Feel	-12.6102
▁Roja	-12.6102
▁Venecia	-12.6102
▁acertijo	-12.6102
▁alcance	-12.6102
▁angusti	-12.6102
▁australiano	-12.6102
▁benefit	-12.6102
▁carcajada	-12.6102
▁carpenter	-12.6102
▁compleja	-12.6102
▁deshonesto	-12.6102
▁despierte	-12.6102
▁destruido	-12.6102
▁errand	-12.6102
▁farmacia	-12.6102
▁fatiga	-12.6102
▁folk	-12.6102
▁hydr	-12.6102
▁instinto	-12.6102
▁intersection	-12.6102
▁mammal	-12.6102
▁mamífero	-12.6102
▁padrastro	-12.6102
▁picó	-12.6102
▁positivo	-12.6102
▁quebrado	-12.6102
▁simpatía	-12.6102
▁sorrow	-12.6102
▁souvenir	-12.6102
▁spouse	-12.6102
▁unattended	-12.6102
▁Acorda	-12.6102
▁Detente	-12.6102
▁YouTube	-12.6102
▁agitó	-12.6102
▁belief	-12.6102
▁cafe	-12.6102
▁criticism	-12.6102
▁gesto	-12.6102
▁grueso	-12.6102
▁inseguro	-12.6102
▁intenso	-12.6102
▁intimida	-12.6102
▁ofender	-12.6102
▁sequía	-12.6102
▁tasty	-12.6102
▁Report	-12.6102
Cola	-12.6102
▁Natur	-12.6102
▁diplomatic	-12.6102
▁dispers	-12.6102
▁exceso	-12.6102
▁sociable	-12.6102
▁Palace	-12.6102
▁communication	-12.6102
▁compasión	-12.6102
▁proposición	-12.6102
▁secure	-12.6102
▁tobacco	-12.6102
▁técnica	-12.6102
▁contagiosa	-12.6102
▁damp	-12.6102
▁wreck	-12.6102
▁culpó	-12.6102
▁disputa	-12.6102
▁silenciosamente	-12.6102
▁cooperation	-12.6102
▁inténtalo	-12.6102
▁outcome	-12.6102
▁representative	-12.6102
▁setenta	-12.6102
▁Luckily	-12.6102
▁accountant	-12.6102
▁distraído	-12.6102
▁espinacas	-12.6102
▁torneo	-12.6102
▁widow	-12.6102
▁Pardon	-12.6102
▁allegation	-12.6102
▁estadio	-12.6102
▁meditating	-12.6102
▁termino	-12.6102
▁doorbell	-12.6102
▁educated	-12.6102
▁quote	-12.6102
▁racional	-12.6102
▁afición	-12.6102
▁despejar	-12.6102
▁platform	-12.6102
▁Cuelg	-12.6102
▁ardilla	-12.6102
▁magician	-12.6102
▁Britain	-12.6102
▁bruja	-12.6102
▁edge	-12.6102
▁foul	-12.6102
▁psychiatrist	-12.6102
▁cayeron	-12.6102
▁Conducir	-12.6102
▁Nació	-12.6102
▁calificaciones	-12.6102
▁shark	-12.6102
▁dominio	-12.6102
▁cesta	-12.6102
▁entendiera	-12.6102
rupción	-12.6102
▁watermelon	-12.6102
▁espina	-12.6102
▁parallel	-12.6102
▁barcos	-12.6102
▁rudo	-12.6102
▁sacudirse	-12.6102
▁calendario	-12.6102
▁pecado	-12.6102
▁proverbio	-12.6102
▁haciéndolo	-12.6102
▁vestir	-12.6102
▁Human	-12.6102
▁tabla	-12.6102
▁carelessness	-12.6102
▁reflexionar	-12.6102
▁barrer	-12.6102
▁pesimista	-12.6102
▁sorda	-12.6102
▁Quiet	-12.6102
▁crane	-12.6102
▁estrés	-12.6102
▁humid	-12.6102
▁temblando	-12.6102
rang	-12.6102
▁aéreo	-12.6102
▁factories	-12.6102
▁bakery	-12.6102
▁Alps	-12.6102
▁River	-12.6102
▁handbag	-12.6102
▁ingresar	-12.6102
▁Filipino	-12.6102
▁anticipated	-12.6102
▁objective	-12.6102
▁nationality	-12.6102
▁torpe	-12.6102
▁enseñanza	-12.6102
▁cartero	-12.6102
▁fíe	-12.6102
▁intensa	-12.6102
▁disappointment	-12.6102
▁misteriosa	-12.6102
▁regañado	-12.6102
▁gravedad	-12.6103
▁hormigas	-12.6103
▁categoría	-12.6103
▁realistic	-12.6103
▁aparcado	-12.6103
▁regalado	-12.6103
▁podrido	-12.6103
▁proverb	-12.6103
▁interferir	-12.6103
▁fiddle	-12.6103
▁unbearable	-12.6103
▁apresurado	-12.6103
▁actuación	-12.6103
▁fulfill	-12.6103
▁villagers	-12.6103
▁Háblame	-12.6103
▁pudiéramos	-12.6103
▁almorzamos	-12.6103
▁pronunciación	-12.6103
▁florece	-12.6103
▁vigilando	-12.6103
▁Saqué	-12.6103
▁fatter	-12.6103
▁ojeada	-12.6103
▁pulsera	-12.6103
▁especie	-12.6103
▁fled	-12.6103
▁desempleado	-12.6103
▁function	-12.6103
▁patients	-12.6103
▁entregué	-12.6103
▁reclam	-12.6103
▁Jur	-12.6103
▁vanished	-12.6103
▁separó	-12.6103
▁arduamente	-12.6103
▁regardless	-12.6103
▁bailarín	-12.6103
▁airmail	-12.6103
▁comic	-12.6104
▁passage	-12.6104
▁humanity	-12.6104
▁trajiste	-12.6104
vinc	-12.6104
▁Divid	-12.6104
▁elija	-12.6104
▁Hide	-12.6104
▁minerales	-12.6104
prendieron	-12.6105
▁ahogando	-12.6105
▁philosophy	-12.6105
▁shortage	-12.6105
▁significant	-12.6105
▁destrozado	-12.6105
▁Sentate	-12.6105
▁aventón	-12.6105
▁contaste	-12.6105
▁alcoholic	-12.6105
▁salsa	-12.6105
▁hotter	-12.6105
▁Asians	-12.6105
▁disfrazado	-12.6105
▁gris	-12.6105
▁doblar	-12.6105
▁arco	-12.6105
▁graduarse	-12.6105
▁cocido	-12.6106
▁Ski	-12.6106
▁dentífrico	-12.6106
▁defectuoso	-12.6106
▁especialidad	-12.6106
▁existir	-12.6106
▁dimitir	-12.6106
▁tomato	-12.6106
▁suertudo	-12.6106
▁fist	-12.6106
▁contratado	-12.6106
▁entraste	-12.6106
▁evitando	-12.6106
employment	-12.6106
▁Súbe	-12.6106
▁Venice	-12.6106
▁mataste	-12.6106
▁ligeramente	-12.6107
▁specific	-12.6107
▁speechless	-12.6107
▁maleducado	-12.6107
▁vengo	-12.6107
▁estupendamente	-12.6107
▁fracasó	-12.6107
▁leíste	-12.6107
▁secuestrado	-12.6107
▁vestirse	-12.6107
▁snowman	-12.6108
▁noviembre	-12.6108
▁escondiste	-12.6108
▁innecesario	-12.6108
▁frustrado	-12.6108
▁ticking	-12.6108
▁obligaron	-12.6108
▁Mostrame	-12.6108
▁instantly	-12.6108
▁perdonará	-12.6108
▁comparto	-12.6109
▁recordado	-12.6109
▁gané	-12.6109
▁patas	-12.6109
▁worthless	-12.6109
▁repetirlo	-12.6109
▁sucederá	-12.6109
▁manejando	-12.611
▁nacionales	-12.611
▁sickness	-12.611
▁childish	-12.611
▁preparados	-12.611
▁untied	-12.611
▁dispararon	-12.6111
▁conquer	-12.6111
▁Boys	-12.6111
▁Seven	-12.6111
010.	-12.6111
▁conocerla	-12.6111
▁opuesto	-12.6112
▁sailing	-12.6112
▁retirarse	-12.6112
▁Tira	-12.6112
▁barra	-12.6112
▁fama	-12.6113
▁examinar	-12.6113
▁jardinero	-12.6113
▁mona	-12.6113
▁implicado	-12.6113
▁descuido	-12.6114
▁extraordinario	-12.6114
▁commander	-12.6114
▁tender	-12.6114
▁crecido	-12.6115
▁admiro	-12.6115
▁print	-12.6115
▁indefenso	-12.6116
▁basis	-12.6116
▁reímos	-12.6116
▁duck	-12.6116
Estaría	-12.6116
▁prestada	-12.6116
Hablaste	-12.6116
▁abro	-12.6116
▁alley	-12.6117
▁update	-12.6117
▁dull	-12.6117
▁Queen	-12.6118
▁quemando	-12.6118
▁estribos	-12.6118
▁villancicos	-12.6118
▁tag	-12.6118
▁cansando	-12.6118
▁loaded	-12.6119
▁Huel	-12.6119
▁spying	-12.6119
▁insiste	-12.6119
▁orilla	-12.612
▁arrestada	-12.612
▁competed	-12.612
▁desarrollo	-12.612
▁paseando	-12.6121
▁atraviesa	-12.6121
▁captured	-12.6121
▁surf	-12.6121
▁capacidades	-12.6121
▁lejano	-12.6122
▁ripe	-12.6122
▁entretenido	-12.6122
▁phrase	-12.6122
▁viajero	-12.6123
▁Calm	-12.6123
sterna	-12.6124
▁despedirse	-12.6125
▁barked	-12.6125
▁consideraría	-12.6126
▁triunfará	-12.6126
▁subieron	-12.6127
▁Cuba	-12.6127
▁resfrío	-12.6127
▁levantaron	-12.6128
▁esconderse	-12.6129
▁sandía	-12.6129
▁apretado	-12.6129
▁gardener	-12.6131
▁conveniente	-12.6131
▁débiles	-12.6132
▁exponer	-12.6132
[...]
